{
  "version": "1.0",
  "truncation": null,
  "padding": null,
  "added_tokens": [
    {
      "id": 0,
      "content": "[UNK]",
      "single_word": false,
      "lstrip": false,
      "rstrip": false,
      "normalized": false,
      "special": true
    },
    {
      "id": 1,
      "content": "[CLS]",
      "single_word": false,
      "lstrip": false,
      "rstrip": false,
      "normalized": false,
      "special": true
    },
    {
      "id": 2,
      "content": "[SEP]",
      "single_word": false,
      "lstrip": false,
      "rstrip": false,
      "normalized": false,
      "special": true
    },
    {
      "id": 3,
      "content": "[PAD]",
      "single_word": false,
      "lstrip": false,
      "rstrip": false,
      "normalized": false,
      "special": true
    },
    {
      "id": 4,
      "content": "[MASK]",
      "single_word": false,
      "lstrip": false,
      "rstrip": false,
      "normalized": false,
      "special": true
    }
  ],
  "normalizer": null,
  "pre_tokenizer": {
    "type": "Whitespace"
  },
  "post_processor": null,
  "decoder": null,
  "model": {
    "type": "BPE",
    "dropout": null,
    "unk_token": "[UNK]",
    "continuing_subword_prefix": null,
    "end_of_word_suffix": null,
    "fuse_unk": false,
    "byte_fallback": false,
    "ignore_merges": false,
    "vocab": {
      "[UNK]": 0,
      "[CLS]": 1,
      "[SEP]": 2,
      "[PAD]": 3,
      "[MASK]": 4,
      "\b": 5,
      "!": 6,
      "\"": 7,
      "#": 8,
      "$": 9,
      "%": 10,
      "&": 11,
      "'": 12,
      "(": 13,
      ")": 14,
      "*": 15,
      "+": 16,
      ",": 17,
      "-": 18,
      ".": 19,
      "/": 20,
      "0": 21,
      "1": 22,
      "2": 23,
      "3": 24,
      "4": 25,
      "5": 26,
      "6": 27,
      "7": 28,
      "8": 29,
      "9": 30,
      ":": 31,
      ";": 32,
      "<": 33,
      "=": 34,
      ">": 35,
      "?": 36,
      "A": 37,
      "B": 38,
      "C": 39,
      "D": 40,
      "E": 41,
      "F": 42,
      "G": 43,
      "H": 44,
      "I": 45,
      "J": 46,
      "K": 47,
      "L": 48,
      "M": 49,
      "N": 50,
      "O": 51,
      "P": 52,
      "Q": 53,
      "R": 54,
      "S": 55,
      "T": 56,
      "U": 57,
      "V": 58,
      "W": 59,
      "X": 60,
      "Y": 61,
      "Z": 62,
      "[": 63,
      "\\": 64,
      "]": 65,
      "^": 66,
      "_": 67,
      "`": 68,
      "a": 69,
      "b": 70,
      "c": 71,
      "d": 72,
      "e": 73,
      "f": 74,
      "g": 75,
      "h": 76,
      "i": 77,
      "j": 78,
      "k": 79,
      "l": 80,
      "m": 81,
      "n": 82,
      "o": 83,
      "p": 84,
      "q": 85,
      "r": 86,
      "s": 87,
      "t": 88,
      "u": 89,
      "v": 90,
      "w": 91,
      "x": 92,
      "y": 93,
      "z": 94,
      "|": 95,
      "}": 96,
      "~": 97,
      "": 98,
      "": 99,
      "": 100,
      "": 101,
      "": 102,
      "¡": 103,
      "£": 104,
      "§": 105,
      "¨": 106,
      "©": 107,
      "ª": 108,
      "«": 109,
      "¬": 110,
      "­": 111,
      "°": 112,
      "²": 113,
      "³": 114,
      "´": 115,
      "µ": 116,
      "·": 117,
      "º": 118,
      "»": 119,
      "¼": 120,
      "½": 121,
      "¿": 122,
      "À": 123,
      "Á": 124,
      "Â": 125,
      "Ã": 126,
      "Ä": 127,
      "Å": 128,
      "Æ": 129,
      "Ç": 130,
      "È": 131,
      "É": 132,
      "Ê": 133,
      "Ë": 134,
      "Ì": 135,
      "Í": 136,
      "Î": 137,
      "Ï": 138,
      "Ð": 139,
      "Ñ": 140,
      "Ò": 141,
      "Ó": 142,
      "Ô": 143,
      "Õ": 144,
      "Ö": 145,
      "×": 146,
      "Ø": 147,
      "Ù": 148,
      "Ú": 149,
      "Û": 150,
      "Ü": 151,
      "Ý": 152,
      "Þ": 153,
      "ß": 154,
      "à": 155,
      "á": 156,
      "â": 157,
      "ã": 158,
      "ä": 159,
      "å": 160,
      "æ": 161,
      "ç": 162,
      "è": 163,
      "é": 164,
      "ê": 165,
      "ë": 166,
      "ì": 167,
      "í": 168,
      "î": 169,
      "ï": 170,
      "ð": 171,
      "ñ": 172,
      "ò": 173,
      "ó": 174,
      "ô": 175,
      "õ": 176,
      "ö": 177,
      "ø": 178,
      "ù": 179,
      "ú": 180,
      "û": 181,
      "ü": 182,
      "ý": 183,
      "þ": 184,
      "ÿ": 185,
      "Ā": 186,
      "ā": 187,
      "Ă": 188,
      "ă": 189,
      "ą": 190,
      "Ć": 191,
      "ć": 192,
      "Ĉ": 193,
      "ĉ": 194,
      "Ċ": 195,
      "ċ": 196,
      "Č": 197,
      "č": 198,
      "Ď": 199,
      "ď": 200,
      "Đ": 201,
      "đ": 202,
      "Ē": 203,
      "ē": 204,
      "ĕ": 205,
      "ė": 206,
      "Ę": 207,
      "ę": 208,
      "ě": 209,
      "Ĝ": 210,
      "ĝ": 211,
      "Ğ": 212,
      "ğ": 213,
      "Ġ": 214,
      "ġ": 215,
      "Ģ": 216,
      "ģ": 217,
      "Ĥ": 218,
      "ĥ": 219,
      "Ħ": 220,
      "ħ": 221,
      "Ĩ": 222,
      "ĩ": 223,
      "Ī": 224,
      "ī": 225,
      "ĭ": 226,
      "Į": 227,
      "į": 228,
      "İ": 229,
      "ı": 230,
      "Ĵ": 231,
      "ĵ": 232,
      "Ķ": 233,
      "ķ": 234,
      "ĺ": 235,
      "Ļ": 236,
      "ļ": 237,
      "Ľ": 238,
      "ľ": 239,
      "Ł": 240,
      "ł": 241,
      "ń": 242,
      "Ņ": 243,
      "ņ": 244,
      "ň": 245,
      "Ŋ": 246,
      "ŋ": 247,
      "Ō": 248,
      "ō": 249,
      "ŏ": 250,
      "Ő": 251,
      "ő": 252,
      "œ": 253,
      "ŕ": 254,
      "Ř": 255,
      "ř": 256,
      "Ś": 257,
      "ś": 258,
      "Ŝ": 259,
      "ŝ": 260,
      "Ş": 261,
      "ş": 262,
      "Š": 263,
      "š": 264,
      "ť": 265,
      "Ũ": 266,
      "ũ": 267,
      "Ū": 268,
      "ū": 269,
      "ŭ": 270,
      "ů": 271,
      "ű": 272,
      "ų": 273,
      "Ŵ": 274,
      "ŵ": 275,
      "ŷ": 276,
      "Ź": 277,
      "ź": 278,
      "Ż": 279,
      "ż": 280,
      "Ž": 281,
      "ž": 282,
      "Ɓ": 283,
      "Ɔ": 284,
      "Ɖ": 285,
      "Ɗ": 286,
      "Ǝ": 287,
      "Ə": 288,
      "Ɛ": 289,
      "Ƒ": 290,
      "ƒ": 291,
      "Ɣ": 292,
      "Ɩ": 293,
      "Ƙ": 294,
      "ƙ": 295,
      "Ɲ": 296,
      "ơ": 297,
      "Ư": 298,
      "ư": 299,
      "Ʋ": 300,
      "Ƴ": 301,
      "ƴ": 302,
      "ǎ": 303,
      "ǐ": 304,
      "ǒ": 305,
      "ǔ": 306,
      "ǝ": 307,
      "Ǧ": 308,
      "ǧ": 309,
      "ǹ": 310,
      "ȋ": 311,
      "Ș": 312,
      "ș": 313,
      "Ț": 314,
      "ț": 315,
      "ɑ": 316,
      "ɓ": 317,
      "ɔ": 318,
      "ɖ": 319,
      "ɗ": 320,
      "ə": 321,
      "ɛ": 322,
      "ɣ": 323,
      "ɩ": 324,
      "ɲ": 325,
      "ʈ": 326,
      "ʊ": 327,
      "ʋ": 328,
      "ʺ": 329,
      "ʻ": 330,
      "ʼ": 331,
      "ˊ": 332,
      "˚": 333,
      "˜": 334,
      "̀": 335,
      "́": 336,
      "̂": 337,
      "̃": 338,
      "̄": 339,
      "̇": 340,
      "̈": 341,
      "̋": 342,
      "̌": 343,
      "̣": 344,
      "̰": 345,
      "̱": 346,
      "̵": 347,
      "̶": 348,
      "ͦ": 349,
      "ͻ": 350,
      "΄": 351,
      "Ά": 352,
      "Έ": 353,
      "Ή": 354,
      "Ί": 355,
      "Ό": 356,
      "Ώ": 357,
      "ΐ": 358,
      "Α": 359,
      "Β": 360,
      "Γ": 361,
      "Δ": 362,
      "Ε": 363,
      "Ζ": 364,
      "Η": 365,
      "Θ": 366,
      "Ι": 367,
      "Κ": 368,
      "Λ": 369,
      "Μ": 370,
      "Ν": 371,
      "Ξ": 372,
      "Ο": 373,
      "Π": 374,
      "Ρ": 375,
      "Σ": 376,
      "Τ": 377,
      "Υ": 378,
      "Φ": 379,
      "Χ": 380,
      "Ω": 381,
      "ά": 382,
      "έ": 383,
      "ή": 384,
      "ί": 385,
      "α": 386,
      "β": 387,
      "γ": 388,
      "δ": 389,
      "ε": 390,
      "ζ": 391,
      "η": 392,
      "θ": 393,
      "ι": 394,
      "κ": 395,
      "λ": 396,
      "μ": 397,
      "ν": 398,
      "ξ": 399,
      "ο": 400,
      "π": 401,
      "ρ": 402,
      "ς": 403,
      "σ": 404,
      "τ": 405,
      "υ": 406,
      "φ": 407,
      "χ": 408,
      "ψ": 409,
      "ω": 410,
      "ϊ": 411,
      "ϋ": 412,
      "ό": 413,
      "ύ": 414,
      "ώ": 415,
      "Ͻ": 416,
      "Ё": 417,
      "Ђ": 418,
      "Ѓ": 419,
      "Є": 420,
      "Ѕ": 421,
      "І": 422,
      "Ї": 423,
      "Ј": 424,
      "Љ": 425,
      "Њ": 426,
      "Ћ": 427,
      "Ќ": 428,
      "Ў": 429,
      "Џ": 430,
      "А": 431,
      "Б": 432,
      "В": 433,
      "Г": 434,
      "Д": 435,
      "Е": 436,
      "Ж": 437,
      "З": 438,
      "И": 439,
      "Й": 440,
      "К": 441,
      "Л": 442,
      "М": 443,
      "Н": 444,
      "О": 445,
      "П": 446,
      "Р": 447,
      "С": 448,
      "Т": 449,
      "У": 450,
      "Ф": 451,
      "Х": 452,
      "Ц": 453,
      "Ч": 454,
      "Ш": 455,
      "Щ": 456,
      "Ы": 457,
      "Э": 458,
      "Ю": 459,
      "Я": 460,
      "а": 461,
      "б": 462,
      "в": 463,
      "г": 464,
      "д": 465,
      "е": 466,
      "ж": 467,
      "з": 468,
      "и": 469,
      "й": 470,
      "к": 471,
      "л": 472,
      "м": 473,
      "н": 474,
      "о": 475,
      "п": 476,
      "р": 477,
      "с": 478,
      "т": 479,
      "у": 480,
      "ф": 481,
      "х": 482,
      "ц": 483,
      "ч": 484,
      "ш": 485,
      "щ": 486,
      "ъ": 487,
      "ы": 488,
      "ь": 489,
      "э": 490,
      "ю": 491,
      "я": 492,
      "ѐ": 493,
      "ё": 494,
      "ђ": 495,
      "ѓ": 496,
      "є": 497,
      "ѕ": 498,
      "і": 499,
      "ї": 500,
      "ј": 501,
      "љ": 502,
      "њ": 503,
      "ћ": 504,
      "ќ": 505,
      "ѝ": 506,
      "ў": 507,
      "џ": 508,
      "Ґ": 509,
      "ґ": 510,
      "Ғ": 511,
      "ғ": 512,
      "Җ": 513,
      "җ": 514,
      "Ҙ": 515,
      "ҙ": 516,
      "Қ": 517,
      "қ": 518,
      "Ҡ": 519,
      "ҡ": 520,
      "ң": 521,
      "ҫ": 522,
      "Ү": 523,
      "ү": 524,
      "Ұ": 525,
      "ұ": 526,
      "Ҳ": 527,
      "ҳ": 528,
      "Ҷ": 529,
      "ҷ": 530,
      "Һ": 531,
      "һ": 532,
      "Ӗ": 533,
      "Ә": 534,
      "ә": 535,
      "ӣ": 536,
      "Ө": 537,
      "ө": 538,
      "Ӯ": 539,
      "ӯ": 540,
      "Ԑ": 541,
      "ԑ": 542,
      "Ա": 543,
      "Բ": 544,
      "Գ": 545,
      "Դ": 546,
      "Ե": 547,
      "Զ": 548,
      "Է": 549,
      "Ը": 550,
      "Թ": 551,
      "Ժ": 552,
      "Ի": 553,
      "Լ": 554,
      "Խ": 555,
      "Ծ": 556,
      "Կ": 557,
      "Հ": 558,
      "Ձ": 559,
      "Ղ": 560,
      "Ճ": 561,
      "Մ": 562,
      "Յ": 563,
      "Ն": 564,
      "Շ": 565,
      "Ո": 566,
      "Չ": 567,
      "Պ": 568,
      "Ջ": 569,
      "Ռ": 570,
      "Ս": 571,
      "Վ": 572,
      "Տ": 573,
      "Ր": 574,
      "Ց": 575,
      "Ւ": 576,
      "Փ": 577,
      "Ք": 578,
      "Օ": 579,
      "Ֆ": 580,
      "՛": 581,
      "՝": 582,
      "՞": 583,
      "ա": 584,
      "բ": 585,
      "գ": 586,
      "դ": 587,
      "ե": 588,
      "զ": 589,
      "է": 590,
      "ը": 591,
      "թ": 592,
      "ժ": 593,
      "ի": 594,
      "լ": 595,
      "խ": 596,
      "ծ": 597,
      "կ": 598,
      "հ": 599,
      "ձ": 600,
      "ղ": 601,
      "ճ": 602,
      "մ": 603,
      "յ": 604,
      "ն": 605,
      "շ": 606,
      "ո": 607,
      "չ": 608,
      "պ": 609,
      "ջ": 610,
      "ռ": 611,
      "ս": 612,
      "վ": 613,
      "տ": 614,
      "ր": 615,
      "ց": 616,
      "ւ": 617,
      "փ": 618,
      "ք": 619,
      "օ": 620,
      "ֆ": 621,
      "և": 622,
      "։": 623,
      "ּ": 624,
      "־": 625,
      "א": 626,
      "ב": 627,
      "ג": 628,
      "ד": 629,
      "ה": 630,
      "ו": 631,
      "ז": 632,
      "ח": 633,
      "ט": 634,
      "י": 635,
      "ך": 636,
      "כ": 637,
      "ל": 638,
      "ם": 639,
      "מ": 640,
      "ן": 641,
      "נ": 642,
      "ס": 643,
      "ע": 644,
      "ף": 645,
      "פ": 646,
      "ץ": 647,
      "צ": 648,
      "ק": 649,
      "ר": 650,
      "ש": 651,
      "ת": 652,
      "،": 653,
      "؍": 654,
      "؛": 655,
      "؟": 656,
      "ء": 657,
      "آ": 658,
      "أ": 659,
      "ؤ": 660,
      "إ": 661,
      "ئ": 662,
      "ا": 663,
      "ب": 664,
      "ة": 665,
      "ت": 666,
      "ث": 667,
      "ج": 668,
      "ح": 669,
      "خ": 670,
      "د": 671,
      "ذ": 672,
      "ر": 673,
      "ز": 674,
      "س": 675,
      "ش": 676,
      "ص": 677,
      "ض": 678,
      "ط": 679,
      "ظ": 680,
      "ع": 681,
      "غ": 682,
      "ـ": 683,
      "ف": 684,
      "ق": 685,
      "ك": 686,
      "ل": 687,
      "م": 688,
      "ن": 689,
      "ه": 690,
      "و": 691,
      "ى": 692,
      "ي": 693,
      "ً": 694,
      "ٌ": 695,
      "ٍ": 696,
      "َ": 697,
      "ُ": 698,
      "ِ": 699,
      "ّ": 700,
      "ْ": 701,
      "ٓ": 702,
      "ٔ": 703,
      "ٕ": 704,
      "ٖ": 705,
      "ٗ": 706,
      "ٚ": 707,
      "ٛ": 708,
      "٠": 709,
      "١": 710,
      "٢": 711,
      "٣": 712,
      "٤": 713,
      "٥": 714,
      "٦": 715,
      "٧": 716,
      "٨": 717,
      "٩": 718,
      "٪": 719,
      "٫": 720,
      "ٮ": 721,
      "ٰ": 722,
      "ٲ": 723,
      "ٴ": 724,
      "ٹ": 725,
      "ٺ": 726,
      "ٻ": 727,
      "ټ": 728,
      "ٽ": 729,
      "پ": 730,
      "ٿ": 731,
      "ڀ": 732,
      "ځ": 733,
      "ڃ": 734,
      "ڄ": 735,
      "څ": 736,
      "چ": 737,
      "ڇ": 738,
      "ڈ": 739,
      "ډ": 740,
      "ڊ": 741,
      "ڌ": 742,
      "ڍ": 743,
      "ڏ": 744,
      "ڑ": 745,
      "ړ": 746,
      "ڕ": 747,
      "ږ": 748,
      "ژ": 749,
      "ڙ": 750,
      "ښ": 751,
      "ڠ": 752,
      "ڤ": 753,
      "ڦ": 754,
      "ک": 755,
      "ڪ": 756,
      "ګ": 757,
      "ڬ": 758,
      "ڭ": 759,
      "گ": 760,
      "ڱ": 761,
      "ڳ": 762,
      "ڵ": 763,
      "ں": 764,
      "ڻ": 765,
      "ڼ": 766,
      "ڽ": 767,
      "ھ": 768,
      "ۀ": 769,
      "ہ": 770,
      "ۂ": 771,
      "ۃ": 772,
      "ۄ": 773,
      "ۅ": 774,
      "ۆ": 775,
      "ۇ": 776,
      "ۈ": 777,
      "ۋ": 778,
      "ی": 779,
      "ۍ": 780,
      "ێ": 781,
      "ۏ": 782,
      "ې": 783,
      "ۑ": 784,
      "ے": 785,
      "۔": 786,
      "ە": 787,
      "ۧ": 788,
      "۪": 789,
      "ۭ": 790,
      "۰": 791,
      "۱": 792,
      "۲": 793,
      "۳": 794,
      "۴": 795,
      "۵": 796,
      "۶": 797,
      "۷": 798,
      "۸": 799,
      "۹": 800,
      "۽": 801,
      "۾": 802,
      "ݞ": 803,
      "ݢ": 804,
      "ँ": 805,
      "ं": 806,
      "ः": 807,
      "अ": 808,
      "आ": 809,
      "इ": 810,
      "ई": 811,
      "उ": 812,
      "ऊ": 813,
      "ऋ": 814,
      "ऍ": 815,
      "ए": 816,
      "ऐ": 817,
      "ऑ": 818,
      "ओ": 819,
      "औ": 820,
      "क": 821,
      "ख": 822,
      "ग": 823,
      "घ": 824,
      "ङ": 825,
      "च": 826,
      "छ": 827,
      "ज": 828,
      "झ": 829,
      "ञ": 830,
      "ट": 831,
      "ठ": 832,
      "ड": 833,
      "ढ": 834,
      "ण": 835,
      "त": 836,
      "थ": 837,
      "द": 838,
      "ध": 839,
      "न": 840,
      "प": 841,
      "फ": 842,
      "ब": 843,
      "भ": 844,
      "म": 845,
      "य": 846,
      "र": 847,
      "ऱ": 848,
      "ल": 849,
      "ळ": 850,
      "व": 851,
      "श": 852,
      "ष": 853,
      "स": 854,
      "ह": 855,
      "़": 856,
      "ऽ": 857,
      "ा": 858,
      "ि": 859,
      "ी": 860,
      "ु": 861,
      "ू": 862,
      "ृ": 863,
      "ॅ": 864,
      "े": 865,
      "ै": 866,
      "ॉ": 867,
      "ो": 868,
      "ौ": 869,
      "्": 870,
      "क़": 871,
      "ख़": 872,
      "ग़": 873,
      "ज़": 874,
      "ड़": 875,
      "ढ़": 876,
      "फ़": 877,
      "य़": 878,
      "।": 879,
      "०": 880,
      "१": 881,
      "२": 882,
      "३": 883,
      "४": 884,
      "५": 885,
      "६": 886,
      "७": 887,
      "८": 888,
      "९": 889,
      "ঁ": 890,
      "ং": 891,
      "ঃ": 892,
      "অ": 893,
      "আ": 894,
      "ই": 895,
      "ঈ": 896,
      "উ": 897,
      "ঊ": 898,
      "ঋ": 899,
      "এ": 900,
      "ঐ": 901,
      "ও": 902,
      "ঔ": 903,
      "ক": 904,
      "খ": 905,
      "গ": 906,
      "ঘ": 907,
      "ঙ": 908,
      "চ": 909,
      "ছ": 910,
      "জ": 911,
      "ঝ": 912,
      "ঞ": 913,
      "ট": 914,
      "ঠ": 915,
      "ড": 916,
      "ঢ": 917,
      "ণ": 918,
      "ত": 919,
      "থ": 920,
      "দ": 921,
      "ধ": 922,
      "ন": 923,
      "প": 924,
      "ফ": 925,
      "ব": 926,
      "ভ": 927,
      "ম": 928,
      "য": 929,
      "র": 930,
      "ল": 931,
      "শ": 932,
      "ষ": 933,
      "স": 934,
      "হ": 935,
      "়": 936,
      "া": 937,
      "ি": 938,
      "ী": 939,
      "ু": 940,
      "ূ": 941,
      "ৃ": 942,
      "ে": 943,
      "ৈ": 944,
      "ো": 945,
      "ৌ": 946,
      "্": 947,
      "ৎ": 948,
      "ৗ": 949,
      "ড়": 950,
      "ঢ়": 951,
      "য়": 952,
      "০": 953,
      "১": 954,
      "২": 955,
      "৩": 956,
      "৪": 957,
      "৫": 958,
      "৬": 959,
      "৭": 960,
      "৮": 961,
      "৯": 962,
      "ৰ": 963,
      "ৱ": 964,
      "৷": 965,
      "ਂ": 966,
      "ਅ": 967,
      "ਆ": 968,
      "ਇ": 969,
      "ਈ": 970,
      "ਉ": 971,
      "ਊ": 972,
      "ਏ": 973,
      "ਐ": 974,
      "ਓ": 975,
      "ਔ": 976,
      "ਕ": 977,
      "ਖ": 978,
      "ਗ": 979,
      "ਘ": 980,
      "ਚ": 981,
      "ਛ": 982,
      "ਜ": 983,
      "ਝ": 984,
      "ਟ": 985,
      "ਠ": 986,
      "ਡ": 987,
      "ਢ": 988,
      "ਣ": 989,
      "ਤ": 990,
      "ਥ": 991,
      "ਦ": 992,
      "ਧ": 993,
      "ਨ": 994,
      "ਪ": 995,
      "ਫ": 996,
      "ਬ": 997,
      "ਭ": 998,
      "ਮ": 999,
      "ਯ": 1000,
      "ਰ": 1001,
      "ਲ": 1002,
      "ਵ": 1003,
      "ਸ਼": 1004,
      "ਸ": 1005,
      "ਹ": 1006,
      "਼": 1007,
      "ਾ": 1008,
      "ਿ": 1009,
      "ੀ": 1010,
      "ੁ": 1011,
      "ੂ": 1012,
      "ੇ": 1013,
      "ੈ": 1014,
      "ੋ": 1015,
      "ੌ": 1016,
      "੍": 1017,
      "ਖ਼": 1018,
      "ਗ਼": 1019,
      "ਜ਼": 1020,
      "ੜ": 1021,
      "ਫ਼": 1022,
      "ੰ": 1023,
      "ੱ": 1024,
      "ં": 1025,
      "ઃ": 1026,
      "અ": 1027,
      "આ": 1028,
      "ઇ": 1029,
      "ઈ": 1030,
      "ઉ": 1031,
      "ઊ": 1032,
      "ઋ": 1033,
      "ઍ": 1034,
      "એ": 1035,
      "ઐ": 1036,
      "ઑ": 1037,
      "ઓ": 1038,
      "ઔ": 1039,
      "ક": 1040,
      "ખ": 1041,
      "ગ": 1042,
      "ઘ": 1043,
      "ચ": 1044,
      "છ": 1045,
      "જ": 1046,
      "ઝ": 1047,
      "ઞ": 1048,
      "ટ": 1049,
      "ઠ": 1050,
      "ડ": 1051,
      "ઢ": 1052,
      "ણ": 1053,
      "ત": 1054,
      "થ": 1055,
      "દ": 1056,
      "ધ": 1057,
      "ન": 1058,
      "પ": 1059,
      "ફ": 1060,
      "બ": 1061,
      "ભ": 1062,
      "મ": 1063,
      "ય": 1064,
      "ર": 1065,
      "લ": 1066,
      "ળ": 1067,
      "વ": 1068,
      "શ": 1069,
      "ષ": 1070,
      "સ": 1071,
      "હ": 1072,
      "ા": 1073,
      "િ": 1074,
      "ી": 1075,
      "ુ": 1076,
      "ૂ": 1077,
      "ૃ": 1078,
      "ૅ": 1079,
      "ે": 1080,
      "ૈ": 1081,
      "ૉ": 1082,
      "ો": 1083,
      "ૌ": 1084,
      "્": 1085,
      "૪": 1086,
      "૬": 1087,
      "૮": 1088,
      "ଁ": 1089,
      "ଂ": 1090,
      "ଃ": 1091,
      "ଅ": 1092,
      "ଆ": 1093,
      "ଇ": 1094,
      "ଈ": 1095,
      "ଉ": 1096,
      "ଋ": 1097,
      "ଏ": 1098,
      "ଐ": 1099,
      "ଓ": 1100,
      "ଔ": 1101,
      "କ": 1102,
      "ଖ": 1103,
      "ଗ": 1104,
      "ଘ": 1105,
      "ଙ": 1106,
      "ଚ": 1107,
      "ଛ": 1108,
      "ଜ": 1109,
      "ଝ": 1110,
      "ଞ": 1111,
      "ଟ": 1112,
      "ଠ": 1113,
      "ଡ": 1114,
      "ଢ": 1115,
      "ଣ": 1116,
      "ତ": 1117,
      "ଥ": 1118,
      "ଦ": 1119,
      "ଧ": 1120,
      "ନ": 1121,
      "ପ": 1122,
      "ଫ": 1123,
      "ବ": 1124,
      "ଭ": 1125,
      "ମ": 1126,
      "ଯ": 1127,
      "ର": 1128,
      "ଲ": 1129,
      "ଳ": 1130,
      "ଵ": 1131,
      "ଶ": 1132,
      "ଷ": 1133,
      "ସ": 1134,
      "ହ": 1135,
      "଼": 1136,
      "ା": 1137,
      "ି": 1138,
      "ୀ": 1139,
      "ୁ": 1140,
      "ୂ": 1141,
      "ୃ": 1142,
      "ୄ": 1143,
      "େ": 1144,
      "ୈ": 1145,
      "ୋ": 1146,
      "ୌ": 1147,
      "୍": 1148,
      "ୖ": 1149,
      "ୗ": 1150,
      "ଡ଼": 1151,
      "ଢ଼": 1152,
      "ୟ": 1153,
      "୦": 1154,
      "୧": 1155,
      "୨": 1156,
      "୩": 1157,
      "୪": 1158,
      "୫": 1159,
      "୬": 1160,
      "୭": 1161,
      "୮": 1162,
      "୯": 1163,
      "ୱ": 1164,
      "ஃ": 1165,
      "அ": 1166,
      "ஆ": 1167,
      "இ": 1168,
      "ஈ": 1169,
      "உ": 1170,
      "ஊ": 1171,
      "எ": 1172,
      "ஏ": 1173,
      "ஐ": 1174,
      "ஒ": 1175,
      "ஓ": 1176,
      "க": 1177,
      "ங": 1178,
      "ச": 1179,
      "ஜ": 1180,
      "ஞ": 1181,
      "ட": 1182,
      "ண": 1183,
      "த": 1184,
      "ந": 1185,
      "ன": 1186,
      "ப": 1187,
      "ம": 1188,
      "ய": 1189,
      "ர": 1190,
      "ற": 1191,
      "ல": 1192,
      "ள": 1193,
      "ழ": 1194,
      "வ": 1195,
      "ஷ": 1196,
      "ஸ": 1197,
      "ஹ": 1198,
      "ா": 1199,
      "ி": 1200,
      "ீ": 1201,
      "ு": 1202,
      "ூ": 1203,
      "ெ": 1204,
      "ே": 1205,
      "ை": 1206,
      "ொ": 1207,
      "ோ": 1208,
      "ௌ": 1209,
      "்": 1210,
      "ం": 1211,
      "ః": 1212,
      "అ": 1213,
      "ఆ": 1214,
      "ఇ": 1215,
      "ఈ": 1216,
      "ఉ": 1217,
      "ఊ": 1218,
      "ఋ": 1219,
      "ఎ": 1220,
      "ఏ": 1221,
      "ఐ": 1222,
      "ఒ": 1223,
      "ఓ": 1224,
      "ఔ": 1225,
      "క": 1226,
      "ఖ": 1227,
      "గ": 1228,
      "ఘ": 1229,
      "చ": 1230,
      "ఛ": 1231,
      "జ": 1232,
      "ఞ": 1233,
      "ట": 1234,
      "ఠ": 1235,
      "డ": 1236,
      "ఢ": 1237,
      "ణ": 1238,
      "త": 1239,
      "థ": 1240,
      "ద": 1241,
      "ధ": 1242,
      "న": 1243,
      "ప": 1244,
      "ఫ": 1245,
      "బ": 1246,
      "భ": 1247,
      "మ": 1248,
      "య": 1249,
      "ర": 1250,
      "ల": 1251,
      "ళ": 1252,
      "వ": 1253,
      "శ": 1254,
      "ష": 1255,
      "స": 1256,
      "హ": 1257,
      "ా": 1258,
      "ి": 1259,
      "ీ": 1260,
      "ు": 1261,
      "ూ": 1262,
      "ృ": 1263,
      "ె": 1264,
      "ే": 1265,
      "ై": 1266,
      "ొ": 1267,
      "ో": 1268,
      "ౌ": 1269,
      "్": 1270,
      "ౖ": 1271,
      "౦": 1272,
      "ಂ": 1273,
      "ಃ": 1274,
      "ಅ": 1275,
      "ಆ": 1276,
      "ಇ": 1277,
      "ಈ": 1278,
      "ಉ": 1279,
      "ಊ": 1280,
      "ಋ": 1281,
      "ಎ": 1282,
      "ಏ": 1283,
      "ಐ": 1284,
      "ಒ": 1285,
      "ಓ": 1286,
      "ಔ": 1287,
      "ಕ": 1288,
      "ಖ": 1289,
      "ಗ": 1290,
      "ಘ": 1291,
      "ಚ": 1292,
      "ಛ": 1293,
      "ಜ": 1294,
      "ಝ": 1295,
      "ಞ": 1296,
      "ಟ": 1297,
      "ಠ": 1298,
      "ಡ": 1299,
      "ಢ": 1300,
      "ಣ": 1301,
      "ತ": 1302,
      "ಥ": 1303,
      "ದ": 1304,
      "ಧ": 1305,
      "ನ": 1306,
      "ಪ": 1307,
      "ಫ": 1308,
      "ಬ": 1309,
      "ಭ": 1310,
      "ಮ": 1311,
      "ಯ": 1312,
      "ರ": 1313,
      "ಲ": 1314,
      "ಳ": 1315,
      "ವ": 1316,
      "ಶ": 1317,
      "ಷ": 1318,
      "ಸ": 1319,
      "ಹ": 1320,
      "ಾ": 1321,
      "ಿ": 1322,
      "ೀ": 1323,
      "ು": 1324,
      "ೂ": 1325,
      "ೃ": 1326,
      "ೆ": 1327,
      "ೇ": 1328,
      "ೈ": 1329,
      "ೊ": 1330,
      "ೋ": 1331,
      "ೌ": 1332,
      "್": 1333,
      "ೕ": 1334,
      "ೖ": 1335,
      "ം": 1336,
      "ഃ": 1337,
      "അ": 1338,
      "ആ": 1339,
      "ഇ": 1340,
      "ഈ": 1341,
      "ഉ": 1342,
      "ഊ": 1343,
      "എ": 1344,
      "ഏ": 1345,
      "ഐ": 1346,
      "ഒ": 1347,
      "ഓ": 1348,
      "ഔ": 1349,
      "ക": 1350,
      "ഖ": 1351,
      "ഗ": 1352,
      "ഘ": 1353,
      "ങ": 1354,
      "ച": 1355,
      "ഛ": 1356,
      "ജ": 1357,
      "ഞ": 1358,
      "ട": 1359,
      "ഠ": 1360,
      "ഡ": 1361,
      "ണ": 1362,
      "ത": 1363,
      "ഥ": 1364,
      "ദ": 1365,
      "ധ": 1366,
      "ന": 1367,
      "പ": 1368,
      "ഫ": 1369,
      "ബ": 1370,
      "ഭ": 1371,
      "മ": 1372,
      "യ": 1373,
      "ര": 1374,
      "റ": 1375,
      "ല": 1376,
      "ള": 1377,
      "ഴ": 1378,
      "വ": 1379,
      "ശ": 1380,
      "ഷ": 1381,
      "സ": 1382,
      "ഹ": 1383,
      "ാ": 1384,
      "ി": 1385,
      "ീ": 1386,
      "ു": 1387,
      "ൂ": 1388,
      "ൃ": 1389,
      "െ": 1390,
      "േ": 1391,
      "ൈ": 1392,
      "ൊ": 1393,
      "ോ": 1394,
      "ൌ": 1395,
      "്": 1396,
      "ൗ": 1397,
      "ൺ": 1398,
      "ൻ": 1399,
      "ർ": 1400,
      "ൽ": 1401,
      "ൾ": 1402,
      "ං": 1403,
      "ඃ": 1404,
      "අ": 1405,
      "ආ": 1406,
      "ඇ": 1407,
      "ඈ": 1408,
      "ඉ": 1409,
      "ඊ": 1410,
      "උ": 1411,
      "ඌ": 1412,
      "ඍ": 1413,
      "එ": 1414,
      "ඒ": 1415,
      "ඓ": 1416,
      "ඔ": 1417,
      "ඕ": 1418,
      "ක": 1419,
      "ඛ": 1420,
      "ග": 1421,
      "ඝ": 1422,
      "ඞ": 1423,
      "ඟ": 1424,
      "ච": 1425,
      "ඡ": 1426,
      "ජ": 1427,
      "ඤ": 1428,
      "ඥ": 1429,
      "ට": 1430,
      "ඨ": 1431,
      "ඩ": 1432,
      "ණ": 1433,
      "ඬ": 1434,
      "ත": 1435,
      "ථ": 1436,
      "ද": 1437,
      "ධ": 1438,
      "න": 1439,
      "ඳ": 1440,
      "ප": 1441,
      "ඵ": 1442,
      "බ": 1443,
      "භ": 1444,
      "ම": 1445,
      "ඹ": 1446,
      "ය": 1447,
      "ර": 1448,
      "ල": 1449,
      "ව": 1450,
      "ශ": 1451,
      "ෂ": 1452,
      "ස": 1453,
      "හ": 1454,
      "ළ": 1455,
      "ෆ": 1456,
      "්": 1457,
      "ා": 1458,
      "ැ": 1459,
      "ෑ": 1460,
      "ි": 1461,
      "ී": 1462,
      "ු": 1463,
      "ූ": 1464,
      "ෘ": 1465,
      "ෙ": 1466,
      "ේ": 1467,
      "ෛ": 1468,
      "ො": 1469,
      "ෝ": 1470,
      "ෞ": 1471,
      "ෲ": 1472,
      "ก": 1473,
      "ข": 1474,
      "ค": 1475,
      "ฆ": 1476,
      "ง": 1477,
      "จ": 1478,
      "ฉ": 1479,
      "ช": 1480,
      "ซ": 1481,
      "ญ": 1482,
      "ฎ": 1483,
      "ฏ": 1484,
      "ฐ": 1485,
      "ฑ": 1486,
      "ฒ": 1487,
      "ณ": 1488,
      "ด": 1489,
      "ต": 1490,
      "ถ": 1491,
      "ท": 1492,
      "ธ": 1493,
      "น": 1494,
      "บ": 1495,
      "ป": 1496,
      "ผ": 1497,
      "ฝ": 1498,
      "พ": 1499,
      "ฟ": 1500,
      "ภ": 1501,
      "ม": 1502,
      "ย": 1503,
      "ร": 1504,
      "ฤ": 1505,
      "ล": 1506,
      "ว": 1507,
      "ศ": 1508,
      "ษ": 1509,
      "ส": 1510,
      "ห": 1511,
      "ฬ": 1512,
      "อ": 1513,
      "ฮ": 1514,
      "ฯ": 1515,
      "ะ": 1516,
      "ั": 1517,
      "า": 1518,
      "ำ": 1519,
      "ิ": 1520,
      "ี": 1521,
      "ึ": 1522,
      "ื": 1523,
      "ุ": 1524,
      "ู": 1525,
      "เ": 1526,
      "แ": 1527,
      "โ": 1528,
      "ใ": 1529,
      "ไ": 1530,
      "ๆ": 1531,
      "็": 1532,
      "่": 1533,
      "้": 1534,
      "๊": 1535,
      "๋": 1536,
      "์": 1537,
      "ํ": 1538,
      "ກ": 1539,
      "ຂ": 1540,
      "ຄ": 1541,
      "ງ": 1542,
      "ຈ": 1543,
      "ຊ": 1544,
      "ຍ": 1545,
      "ດ": 1546,
      "ຕ": 1547,
      "ຖ": 1548,
      "ທ": 1549,
      "ນ": 1550,
      "ບ": 1551,
      "ປ": 1552,
      "ຜ": 1553,
      "ຝ": 1554,
      "ພ": 1555,
      "ຟ": 1556,
      "ມ": 1557,
      "ຢ": 1558,
      "ຣ": 1559,
      "ລ": 1560,
      "ວ": 1561,
      "ສ": 1562,
      "ຫ": 1563,
      "ອ": 1564,
      "ຮ": 1565,
      "ະ": 1566,
      "ັ": 1567,
      "າ": 1568,
      "ຳ": 1569,
      "ິ": 1570,
      "ີ": 1571,
      "ຶ": 1572,
      "ື": 1573,
      "ຸ": 1574,
      "ູ": 1575,
      "ົ": 1576,
      "ຼ": 1577,
      "ຽ": 1578,
      "ເ": 1579,
      "ແ": 1580,
      "ໂ": 1581,
      "ໃ": 1582,
      "ໄ": 1583,
      "ໆ": 1584,
      "່": 1585,
      "້": 1586,
      "໊": 1587,
      "໋": 1588,
      "໌": 1589,
      "ໍ": 1590,
      "ໜ": 1591,
      "ໝ": 1592,
      "་": 1593,
      "༌": 1594,
      "།": 1595,
      "༠": 1596,
      "༡": 1597,
      "༢": 1598,
      "༣": 1599,
      "༤": 1600,
      "༥": 1601,
      "༦": 1602,
      "༧": 1603,
      "༨": 1604,
      "༩": 1605,
      "༹": 1606,
      "༼": 1607,
      "༽": 1608,
      "ཀ": 1609,
      "ཁ": 1610,
      "ག": 1611,
      "གྷ": 1612,
      "ང": 1613,
      "ཅ": 1614,
      "ཆ": 1615,
      "ཇ": 1616,
      "ཉ": 1617,
      "ཊ": 1618,
      "ཋ": 1619,
      "ཌ": 1620,
      "ཎ": 1621,
      "ཏ": 1622,
      "ཐ": 1623,
      "ད": 1624,
      "ན": 1625,
      "པ": 1626,
      "ཕ": 1627,
      "བ": 1628,
      "མ": 1629,
      "ཙ": 1630,
      "ཚ": 1631,
      "ཛ": 1632,
      "ཝ": 1633,
      "ཞ": 1634,
      "ཟ": 1635,
      "འ": 1636,
      "ཡ": 1637,
      "ར": 1638,
      "ལ": 1639,
      "ཤ": 1640,
      "ས": 1641,
      "ཧ": 1642,
      "ཨ": 1643,
      "ཱ": 1644,
      "ི": 1645,
      "ུ": 1646,
      "ེ": 1647,
      "ཻ": 1648,
      "ོ": 1649,
      "ཽ": 1650,
      "ྀ": 1651,
      "྄": 1652,
      "ྐ": 1653,
      "ྒ": 1654,
      "ྔ": 1655,
      "ྕ": 1656,
      "ྗ": 1657,
      "ྙ": 1658,
      "ྚ": 1659,
      "ྜ": 1660,
      "ྟ": 1661,
      "ྠ": 1662,
      "ྡ": 1663,
      "ྣ": 1664,
      "ྤ": 1665,
      "ྥ": 1666,
      "ྦ": 1667,
      "ྨ": 1668,
      "ྩ": 1669,
      "ྫ": 1670,
      "ྭ": 1671,
      "ྰ": 1672,
      "ྱ": 1673,
      "ྲ": 1674,
      "ླ": 1675,
      "ྶ": 1676,
      "ྷ": 1677,
      "က": 1678,
      "ခ": 1679,
      "ဂ": 1680,
      "င": 1681,
      "စ": 1682,
      "ဆ": 1683,
      "ဇ": 1684,
      "ဈ": 1685,
      "ဉ": 1686,
      "ည": 1687,
      "ဋ": 1688,
      "ဌ": 1689,
      "ဍ": 1690,
      "ဏ": 1691,
      "တ": 1692,
      "ထ": 1693,
      "ဒ": 1694,
      "ဓ": 1695,
      "န": 1696,
      "ပ": 1697,
      "ဖ": 1698,
      "ဗ": 1699,
      "ဘ": 1700,
      "မ": 1701,
      "ယ": 1702,
      "ရ": 1703,
      "လ": 1704,
      "ဝ": 1705,
      "သ": 1706,
      "ဟ": 1707,
      "ဠ": 1708,
      "အ": 1709,
      "ဢ": 1710,
      "ဤ": 1711,
      "ဥ": 1712,
      "ဦ": 1713,
      "ဧ": 1714,
      "ဩ": 1715,
      "ါ": 1716,
      "ာ": 1717,
      "ိ": 1718,
      "ီ": 1719,
      "ု": 1720,
      "ူ": 1721,
      "ေ": 1722,
      "ဲ": 1723,
      "ဵ": 1724,
      "ံ": 1725,
      "့": 1726,
      "း": 1727,
      "္": 1728,
      "်": 1729,
      "ျ": 1730,
      "ြ": 1731,
      "ွ": 1732,
      "ှ": 1733,
      "ဿ": 1734,
      "၀": 1735,
      "၁": 1736,
      "၂": 1737,
      "၃": 1738,
      "၄": 1739,
      "၅": 1740,
      "၆": 1741,
      "၇": 1742,
      "၈": 1743,
      "၉": 1744,
      "၊": 1745,
      "။": 1746,
      "၌": 1747,
      "၍": 1748,
      "၎": 1749,
      "၏": 1750,
      "ၢ": 1751,
      "ၵ": 1752,
      "ၶ": 1753,
      "ၸ": 1754,
      "ၺ": 1755,
      "ၻ": 1756,
      "ၼ": 1757,
      "ၽ": 1758,
      "ၾ": 1759,
      "ၿ": 1760,
      "ႁ": 1761,
      "ႂ": 1762,
      "ႃ": 1763,
      "ႄ": 1764,
      "ႅ": 1765,
      "ႆ": 1766,
      "ႇ": 1767,
      "ႈ": 1768,
      "ႉ": 1769,
      "ႊ": 1770,
      "ႍ": 1771,
      "ა": 1772,
      "ბ": 1773,
      "გ": 1774,
      "დ": 1775,
      "ე": 1776,
      "ვ": 1777,
      "ზ": 1778,
      "თ": 1779,
      "ი": 1780,
      "კ": 1781,
      "ლ": 1782,
      "მ": 1783,
      "ნ": 1784,
      "ო": 1785,
      "პ": 1786,
      "ჟ": 1787,
      "რ": 1788,
      "ს": 1789,
      "ტ": 1790,
      "უ": 1791,
      "ფ": 1792,
      "ქ": 1793,
      "ღ": 1794,
      "ყ": 1795,
      "შ": 1796,
      "ჩ": 1797,
      "ც": 1798,
      "ძ": 1799,
      "წ": 1800,
      "ჭ": 1801,
      "ხ": 1802,
      "ჯ": 1803,
      "ჰ": 1804,
      "ሀ": 1805,
      "ሁ": 1806,
      "ሂ": 1807,
      "ሃ": 1808,
      "ሄ": 1809,
      "ህ": 1810,
      "ሆ": 1811,
      "ለ": 1812,
      "ሉ": 1813,
      "ሊ": 1814,
      "ላ": 1815,
      "ሌ": 1816,
      "ል": 1817,
      "ሎ": 1818,
      "ሏ": 1819,
      "ሐ": 1820,
      "ሑ": 1821,
      "ሒ": 1822,
      "ሓ": 1823,
      "ሔ": 1824,
      "ሕ": 1825,
      "ሖ": 1826,
      "መ": 1827,
      "ሙ": 1828,
      "ሚ": 1829,
      "ማ": 1830,
      "ሜ": 1831,
      "ም": 1832,
      "ሞ": 1833,
      "ሟ": 1834,
      "ሠ": 1835,
      "ሣ": 1836,
      "ሥ": 1837,
      "ሦ": 1838,
      "ረ": 1839,
      "ሩ": 1840,
      "ሪ": 1841,
      "ራ": 1842,
      "ሬ": 1843,
      "ር": 1844,
      "ሮ": 1845,
      "ሯ": 1846,
      "ሰ": 1847,
      "ሱ": 1848,
      "ሲ": 1849,
      "ሳ": 1850,
      "ሴ": 1851,
      "ስ": 1852,
      "ሶ": 1853,
      "ሷ": 1854,
      "ሸ": 1855,
      "ሹ": 1856,
      "ሺ": 1857,
      "ሻ": 1858,
      "ሼ": 1859,
      "ሽ": 1860,
      "ሾ": 1861,
      "ሿ": 1862,
      "ቀ": 1863,
      "ቁ": 1864,
      "ቂ": 1865,
      "ቃ": 1866,
      "ቄ": 1867,
      "ቅ": 1868,
      "ቆ": 1869,
      "ቈ": 1870,
      "ቋ": 1871,
      "ቍ": 1872,
      "ቐ": 1873,
      "ቑ": 1874,
      "ቒ": 1875,
      "ቓ": 1876,
      "ቔ": 1877,
      "ቕ": 1878,
      "ቖ": 1879,
      "ቘ": 1880,
      "ቚ": 1881,
      "ቛ": 1882,
      "ቝ": 1883,
      "በ": 1884,
      "ቡ": 1885,
      "ቢ": 1886,
      "ባ": 1887,
      "ቤ": 1888,
      "ብ": 1889,
      "ቦ": 1890,
      "ቧ": 1891,
      "ቨ": 1892,
      "ቪ": 1893,
      "ቫ": 1894,
      "ቬ": 1895,
      "ቭ": 1896,
      "ቮ": 1897,
      "ተ": 1898,
      "ቱ": 1899,
      "ቲ": 1900,
      "ታ": 1901,
      "ቴ": 1902,
      "ት": 1903,
      "ቶ": 1904,
      "ቷ": 1905,
      "ቸ": 1906,
      "ቹ": 1907,
      "ቺ": 1908,
      "ቻ": 1909,
      "ቼ": 1910,
      "ች": 1911,
      "ቾ": 1912,
      "ኃ": 1913,
      "ኅ": 1914,
      "ኋ": 1915,
      "ነ": 1916,
      "ኑ": 1917,
      "ኒ": 1918,
      "ና": 1919,
      "ኔ": 1920,
      "ን": 1921,
      "ኖ": 1922,
      "ኗ": 1923,
      "ኘ": 1924,
      "ኙ": 1925,
      "ኚ": 1926,
      "ኛ": 1927,
      "ኝ": 1928,
      "ኞ": 1929,
      "ኟ": 1930,
      "አ": 1931,
      "ኡ": 1932,
      "ኢ": 1933,
      "ኣ": 1934,
      "ኤ": 1935,
      "እ": 1936,
      "ኦ": 1937,
      "ኧ": 1938,
      "ከ": 1939,
      "ኩ": 1940,
      "ኪ": 1941,
      "ካ": 1942,
      "ኬ": 1943,
      "ክ": 1944,
      "ኮ": 1945,
      "ኰ": 1946,
      "ኲ": 1947,
      "ኳ": 1948,
      "ኴ": 1949,
      "ኵ": 1950,
      "ኸ": 1951,
      "ኹ": 1952,
      "ኺ": 1953,
      "ኻ": 1954,
      "ኼ": 1955,
      "ኽ": 1956,
      "ኾ": 1957,
      "ዀ": 1958,
      "ዂ": 1959,
      "ዃ": 1960,
      "ዅ": 1961,
      "ወ": 1962,
      "ዉ": 1963,
      "ዊ": 1964,
      "ዋ": 1965,
      "ዌ": 1966,
      "ው": 1967,
      "ዎ": 1968,
      "ዐ": 1969,
      "ዑ": 1970,
      "ዒ": 1971,
      "ዓ": 1972,
      "ዔ": 1973,
      "ዕ": 1974,
      "ዖ": 1975,
      "ዘ": 1976,
      "ዙ": 1977,
      "ዚ": 1978,
      "ዛ": 1979,
      "ዜ": 1980,
      "ዝ": 1981,
      "ዞ": 1982,
      "ዟ": 1983,
      "ዡ": 1984,
      "ዢ": 1985,
      "ዣ": 1986,
      "ዥ": 1987,
      "ዦ": 1988,
      "የ": 1989,
      "ዩ": 1990,
      "ዪ": 1991,
      "ያ": 1992,
      "ዬ": 1993,
      "ይ": 1994,
      "ዮ": 1995,
      "ደ": 1996,
      "ዱ": 1997,
      "ዲ": 1998,
      "ዳ": 1999,
      "ዴ": 2000,
      "ድ": 2001,
      "ዶ": 2002,
      "ዷ": 2003,
      "ጀ": 2004,
      "ጁ": 2005,
      "ጂ": 2006,
      "ጃ": 2007,
      "ጄ": 2008,
      "ጅ": 2009,
      "ጆ": 2010,
      "ገ": 2011,
      "ጉ": 2012,
      "ጊ": 2013,
      "ጋ": 2014,
      "ጌ": 2015,
      "ግ": 2016,
      "ጎ": 2017,
      "ጐ": 2018,
      "ጒ": 2019,
      "ጓ": 2020,
      "ጕ": 2021,
      "ጠ": 2022,
      "ጡ": 2023,
      "ጢ": 2024,
      "ጣ": 2025,
      "ጤ": 2026,
      "ጥ": 2027,
      "ጦ": 2028,
      "ጧ": 2029,
      "ጨ": 2030,
      "ጩ": 2031,
      "ጪ": 2032,
      "ጫ": 2033,
      "ጭ": 2034,
      "ጮ": 2035,
      "ጳ": 2036,
      "ጴ": 2037,
      "ጵ": 2038,
      "ጸ": 2039,
      "ጹ": 2040,
      "ጺ": 2041,
      "ጻ": 2042,
      "ጽ": 2043,
      "ጾ": 2044,
      "ጿ": 2045,
      "ፀ": 2046,
      "ፁ": 2047,
      "ፂ": 2048,
      "ፃ": 2049,
      "ፅ": 2050,
      "ፆ": 2051,
      "ፈ": 2052,
      "ፉ": 2053,
      "ፊ": 2054,
      "ፋ": 2055,
      "ፌ": 2056,
      "ፍ": 2057,
      "ፎ": 2058,
      "ፏ": 2059,
      "ፐ": 2060,
      "ፑ": 2061,
      "ፒ": 2062,
      "ፓ": 2063,
      "ፔ": 2064,
      "ፕ": 2065,
      "ፖ": 2066,
      "፡": 2067,
      "።": 2068,
      "፣": 2069,
      "፤": 2070,
      "፥": 2071,
      "፦": 2072,
      "ក": 2073,
      "ខ": 2074,
      "គ": 2075,
      "ឃ": 2076,
      "ង": 2077,
      "ច": 2078,
      "ឆ": 2079,
      "ជ": 2080,
      "ឈ": 2081,
      "ញ": 2082,
      "ដ": 2083,
      "ឋ": 2084,
      "ឌ": 2085,
      "ឍ": 2086,
      "ណ": 2087,
      "ត": 2088,
      "ថ": 2089,
      "ទ": 2090,
      "ធ": 2091,
      "ន": 2092,
      "ប": 2093,
      "ផ": 2094,
      "ព": 2095,
      "ភ": 2096,
      "ម": 2097,
      "យ": 2098,
      "រ": 2099,
      "ល": 2100,
      "វ": 2101,
      "ស": 2102,
      "ហ": 2103,
      "ឡ": 2104,
      "អ": 2105,
      "ឥ": 2106,
      "ឦ": 2107,
      "ឧ": 2108,
      "ឪ": 2109,
      "ឫ": 2110,
      "ឬ": 2111,
      "ឮ": 2112,
      "ឯ": 2113,
      "ឱ": 2114,
      "ឲ": 2115,
      "ា": 2116,
      "ិ": 2117,
      "ី": 2118,
      "ឹ": 2119,
      "ឺ": 2120,
      "ុ": 2121,
      "ូ": 2122,
      "ួ": 2123,
      "ើ": 2124,
      "ឿ": 2125,
      "ៀ": 2126,
      "េ": 2127,
      "ែ": 2128,
      "ៃ": 2129,
      "ោ": 2130,
      "ៅ": 2131,
      "ំ": 2132,
      "ះ": 2133,
      "ៈ": 2134,
      "៉": 2135,
      "៊": 2136,
      "់": 2137,
      "៌": 2138,
      "៍": 2139,
      "៏": 2140,
      "័": 2141,
      "្": 2142,
      "។": 2143,
      "៖": 2144,
      "ៗ": 2145,
      "០": 2146,
      "១": 2147,
      "២": 2148,
      "៣": 2149,
      "៤": 2150,
      "៥": 2151,
      "៦": 2152,
      "៧": 2153,
      "៨": 2154,
      "៩": 2155,
      "᱐": 2156,
      "᱑": 2157,
      "᱒": 2158,
      "᱓": 2159,
      "᱔": 2160,
      "᱕": 2161,
      "᱖": 2162,
      "᱗": 2163,
      "᱘": 2164,
      "᱙": 2165,
      "ᱚ": 2166,
      "ᱛ": 2167,
      "ᱜ": 2168,
      "ᱝ": 2169,
      "ᱞ": 2170,
      "ᱟ": 2171,
      "ᱠ": 2172,
      "ᱡ": 2173,
      "ᱢ": 2174,
      "ᱣ": 2175,
      "ᱤ": 2176,
      "ᱥ": 2177,
      "ᱦ": 2178,
      "ᱧ": 2179,
      "ᱨ": 2180,
      "ᱩ": 2181,
      "ᱪ": 2182,
      "ᱫ": 2183,
      "ᱬ": 2184,
      "ᱭ": 2185,
      "ᱮ": 2186,
      "ᱯ": 2187,
      "ᱰ": 2188,
      "ᱱ": 2189,
      "ᱲ": 2190,
      "ᱳ": 2191,
      "ᱴ": 2192,
      "ᱵ": 2193,
      "ᱶ": 2194,
      "ᱷ": 2195,
      "ᱸ": 2196,
      "ᱹ": 2197,
      "ᱺ": 2198,
      "ᱻ": 2199,
      "ᱼ": 2200,
      "ᱽ": 2201,
      "᱾": 2202,
      "ᴐ": 2203,
      "ḉ": 2204,
      "Ḍ": 2205,
      "ḍ": 2206,
      "Ḥ": 2207,
      "ḥ": 2208,
      "ṅ": 2209,
      "ṛ": 2210,
      "ṡ": 2211,
      "Ṣ": 2212,
      "ṣ": 2213,
      "Ṭ": 2214,
      "ṭ": 2215,
      "ẓ": 2216,
      "ạ": 2217,
      "Ả": 2218,
      "ả": 2219,
      "Ấ": 2220,
      "ấ": 2221,
      "ầ": 2222,
      "ẩ": 2223,
      "ẫ": 2224,
      "ậ": 2225,
      "ắ": 2226,
      "ằ": 2227,
      "ẳ": 2228,
      "ẵ": 2229,
      "ặ": 2230,
      "Ẹ": 2231,
      "ẹ": 2232,
      "ẻ": 2233,
      "Ẽ": 2234,
      "ẽ": 2235,
      "ế": 2236,
      "ề": 2237,
      "ể": 2238,
      "ễ": 2239,
      "ệ": 2240,
      "ỉ": 2241,
      "Ị": 2242,
      "ị": 2243,
      "Ọ": 2244,
      "ọ": 2245,
      "ỏ": 2246,
      "ố": 2247,
      "ồ": 2248,
      "ổ": 2249,
      "ỗ": 2250,
      "ộ": 2251,
      "ớ": 2252,
      "ờ": 2253,
      "Ở": 2254,
      "ở": 2255,
      "ỡ": 2256,
      "ợ": 2257,
      "Ụ": 2258,
      "ụ": 2259,
      "Ủ": 2260,
      "ủ": 2261,
      "Ứ": 2262,
      "ứ": 2263,
      "ừ": 2264,
      "ử": 2265,
      "ữ": 2266,
      "ự": 2267,
      "ỳ": 2268,
      "ỵ": 2269,
      "ỷ": 2270,
      "ỹ": 2271,
      "ῖ": 2272,
      "​": 2273,
      "‌": 2274,
      "‍": 2275,
      "‎": 2276,
      "‑": 2277,
      "–": 2278,
      "—": 2279,
      "‘": 2280,
      "’": 2281,
      "‚": 2282,
      "“": 2283,
      "”": 2284,
      "„": 2285,
      "•": 2286,
      "․": 2287,
      "…": 2288,
      "‧": 2289,
      "‪": 2290,
      "′": 2291,
      "‹": 2292,
      "›": 2293,
      "⁊": 2294,
      "⁠": 2295,
      "⁣": 2296,
      "⁰": 2297,
      "€": 2298,
      "℃": 2299,
      "№": 2300,
      "™": 2301,
      "Ↄ": 2302,
      "ↄ": 2303,
      "−": 2304,
      "─": 2305,
      "◦": 2306,
      "ⴰ": 2307,
      "ⴱ": 2308,
      "ⴳ": 2309,
      "ⴴ": 2310,
      "ⴶ": 2311,
      "ⴷ": 2312,
      "ⴹ": 2313,
      "ⴻ": 2314,
      "ⴼ": 2315,
      "ⴽ": 2316,
      "ⴾ": 2317,
      "ⵀ": 2318,
      "ⵂ": 2319,
      "ⵃ": 2320,
      "ⵄ": 2321,
      "ⵅ": 2322,
      "ⵆ": 2323,
      "ⵇ": 2324,
      "ⵈ": 2325,
      "ⵉ": 2326,
      "ⵊ": 2327,
      "ⵋ": 2328,
      "ⵌ": 2329,
      "ⵍ": 2330,
      "ⵎ": 2331,
      "ⵏ": 2332,
      "ⵒ": 2333,
      "ⵓ": 2334,
      "ⵔ": 2335,
      "ⵕ": 2336,
      "ⵖ": 2337,
      "ⵗ": 2338,
      "ⵙ": 2339,
      "ⵚ": 2340,
      "ⵛ": 2341,
      "ⵜ": 2342,
      "ⵟ": 2343,
      "ⵠ": 2344,
      "ⵡ": 2345,
      "ⵢ": 2346,
      "ⵣ": 2347,
      "ⵤ": 2348,
      "ⵥ": 2349,
      "ⵯ": 2350,
      "⹁": 2351,
      "、": 2352,
      "。": 2353,
      "々": 2354,
      "《": 2355,
      "》": 2356,
      "「": 2357,
      "」": 2358,
      "『": 2359,
      "』": 2360,
      "あ": 2361,
      "い": 2362,
      "う": 2363,
      "え": 2364,
      "お": 2365,
      "か": 2366,
      "が": 2367,
      "き": 2368,
      "ぎ": 2369,
      "く": 2370,
      "ぐ": 2371,
      "け": 2372,
      "げ": 2373,
      "こ": 2374,
      "ご": 2375,
      "さ": 2376,
      "ざ": 2377,
      "し": 2378,
      "じ": 2379,
      "す": 2380,
      "ず": 2381,
      "せ": 2382,
      "ぜ": 2383,
      "そ": 2384,
      "ぞ": 2385,
      "た": 2386,
      "だ": 2387,
      "ち": 2388,
      "っ": 2389,
      "つ": 2390,
      "づ": 2391,
      "て": 2392,
      "で": 2393,
      "と": 2394,
      "ど": 2395,
      "な": 2396,
      "に": 2397,
      "ぬ": 2398,
      "ね": 2399,
      "の": 2400,
      "は": 2401,
      "ば": 2402,
      "ぱ": 2403,
      "ひ": 2404,
      "び": 2405,
      "ふ": 2406,
      "ぶ": 2407,
      "へ": 2408,
      "べ": 2409,
      "ほ": 2410,
      "ぼ": 2411,
      "ま": 2412,
      "み": 2413,
      "む": 2414,
      "め": 2415,
      "も": 2416,
      "ゃ": 2417,
      "や": 2418,
      "ゆ": 2419,
      "ょ": 2420,
      "よ": 2421,
      "ら": 2422,
      "り": 2423,
      "る": 2424,
      "れ": 2425,
      "ろ": 2426,
      "わ": 2427,
      "を": 2428,
      "ん": 2429,
      "ァ": 2430,
      "ア": 2431,
      "ィ": 2432,
      "イ": 2433,
      "ゥ": 2434,
      "ウ": 2435,
      "ェ": 2436,
      "エ": 2437,
      "ォ": 2438,
      "オ": 2439,
      "カ": 2440,
      "ガ": 2441,
      "キ": 2442,
      "ギ": 2443,
      "ク": 2444,
      "グ": 2445,
      "ケ": 2446,
      "ゲ": 2447,
      "コ": 2448,
      "ゴ": 2449,
      "サ": 2450,
      "ザ": 2451,
      "シ": 2452,
      "ジ": 2453,
      "ス": 2454,
      "ズ": 2455,
      "セ": 2456,
      "ゼ": 2457,
      "ソ": 2458,
      "ゾ": 2459,
      "タ": 2460,
      "ダ": 2461,
      "チ": 2462,
      "ッ": 2463,
      "ツ": 2464,
      "テ": 2465,
      "デ": 2466,
      "ト": 2467,
      "ド": 2468,
      "ナ": 2469,
      "ニ": 2470,
      "ヌ": 2471,
      "ネ": 2472,
      "ノ": 2473,
      "ハ": 2474,
      "バ": 2475,
      "パ": 2476,
      "ヒ": 2477,
      "ビ": 2478,
      "ピ": 2479,
      "フ": 2480,
      "ブ": 2481,
      "プ": 2482,
      "ヘ": 2483,
      "ベ": 2484,
      "ペ": 2485,
      "ホ": 2486,
      "ボ": 2487,
      "ポ": 2488,
      "マ": 2489,
      "ミ": 2490,
      "ム": 2491,
      "メ": 2492,
      "モ": 2493,
      "ャ": 2494,
      "ヤ": 2495,
      "ュ": 2496,
      "ユ": 2497,
      "ョ": 2498,
      "ヨ": 2499,
      "ラ": 2500,
      "リ": 2501,
      "ル": 2502,
      "レ": 2503,
      "ロ": 2504,
      "ワ": 2505,
      "ン": 2506,
      "ヴ": 2507,
      "・": 2508,
      "ー": 2509,
      "一": 2510,
      "丁": 2511,
      "七": 2512,
      "万": 2513,
      "丈": 2514,
      "三": 2515,
      "上": 2516,
      "下": 2517,
      "不": 2518,
      "与": 2519,
      "丑": 2520,
      "专": 2521,
      "且": 2522,
      "世": 2523,
      "丘": 2524,
      "业": 2525,
      "丛": 2526,
      "东": 2527,
      "丝": 2528,
      "丟": 2529,
      "両": 2530,
      "丢": 2531,
      "两": 2532,
      "严": 2533,
      "並": 2534,
      "丧": 2535,
      "个": 2536,
      "中": 2537,
      "丰": 2538,
      "串": 2539,
      "临": 2540,
      "丸": 2541,
      "丹": 2542,
      "为": 2543,
      "主": 2544,
      "丽": 2545,
      "举": 2546,
      "乃": 2547,
      "久": 2548,
      "么": 2549,
      "义": 2550,
      "之": 2551,
      "乌": 2552,
      "乎": 2553,
      "乏": 2554,
      "乐": 2555,
      "乔": 2556,
      "乗": 2557,
      "乘": 2558,
      "九": 2559,
      "乞": 2560,
      "也": 2561,
      "习": 2562,
      "乡": 2563,
      "书": 2564,
      "买": 2565,
      "乱": 2566,
      "乳": 2567,
      "乾": 2568,
      "亂": 2569,
      "了": 2570,
      "予": 2571,
      "争": 2572,
      "事": 2573,
      "二": 2574,
      "于": 2575,
      "亏": 2576,
      "云": 2577,
      "互": 2578,
      "五": 2579,
      "井": 2580,
      "亚": 2581,
      "些": 2582,
      "亜": 2583,
      "亞": 2584,
      "亡": 2585,
      "交": 2586,
      "亥": 2587,
      "亦": 2588,
      "产": 2589,
      "享": 2590,
      "京": 2591,
      "亭": 2592,
      "亮": 2593,
      "亲": 2594,
      "人": 2595,
      "亿": 2596,
      "什": 2597,
      "仁": 2598,
      "仅": 2599,
      "仇": 2600,
      "今": 2601,
      "介": 2602,
      "仍": 2603,
      "从": 2604,
      "仏": 2605,
      "仑": 2606,
      "仔": 2607,
      "仕": 2608,
      "他": 2609,
      "仗": 2610,
      "付": 2611,
      "代": 2612,
      "令": 2613,
      "以": 2614,
      "仪": 2615,
      "们": 2616,
      "仮": 2617,
      "仰": 2618,
      "仲": 2619,
      "件": 2620,
      "价": 2621,
      "任": 2622,
      "份": 2623,
      "仿": 2624,
      "企": 2625,
      "伊": 2626,
      "伍": 2627,
      "伏": 2628,
      "伐": 2629,
      "休": 2630,
      "众": 2631,
      "优": 2632,
      "伙": 2633,
      "会": 2634,
      "伝": 2635,
      "伟": 2636,
      "传": 2637,
      "伤": 2638,
      "伦": 2639,
      "伯": 2640,
      "估": 2641,
      "伴": 2642,
      "伸": 2643,
      "伺": 2644,
      "似": 2645,
      "伽": 2646,
      "但": 2647,
      "佇": 2648,
      "佈": 2649,
      "位": 2650,
      "低": 2651,
      "住": 2652,
      "佐": 2653,
      "体": 2654,
      "佔": 2655,
      "何": 2656,
      "余": 2657,
      "佛": 2658,
      "作": 2659,
      "你": 2660,
      "佩": 2661,
      "佳": 2662,
      "併": 2663,
      "使": 2664,
      "來": 2665,
      "例": 2666,
      "侖": 2667,
      "供": 2668,
      "依": 2669,
      "価": 2670,
      "侦": 2671,
      "侧": 2672,
      "侯": 2673,
      "侵": 2674,
      "侶": 2675,
      "侷": 2676,
      "便": 2677,
      "係": 2678,
      "促": 2679,
      "俄": 2680,
      "俗": 2681,
      "俘": 2682,
      "俚": 2683,
      "保": 2684,
      "信": 2685,
      "修": 2686,
      "俯": 2687,
      "俱": 2688,
      "個": 2689,
      "倍": 2690,
      "們": 2691,
      "倒": 2692,
      "倖": 2693,
      "候": 2694,
      "借": 2695,
      "倡": 2696,
      "値": 2697,
      "倦": 2698,
      "倫": 2699,
      "值": 2700,
      "倾": 2701,
      "假": 2702,
      "偉": 2703,
      "偏": 2704,
      "做": 2705,
      "停": 2706,
      "健": 2707,
      "側": 2708,
      "偵": 2709,
      "偶": 2710,
      "偷": 2711,
      "偽": 2712,
      "傑": 2713,
      "傘": 2714,
      "備": 2715,
      "储": 2716,
      "催": 2717,
      "傳": 2718,
      "傷": 2719,
      "傾": 2720,
      "僅": 2721,
      "働": 2722,
      "像": 2723,
      "僧": 2724,
      "僱": 2725,
      "價": 2726,
      "僻": 2727,
      "儀": 2728,
      "億": 2729,
      "儕": 2730,
      "儘": 2731,
      "償": 2732,
      "優": 2733,
      "儲": 2734,
      "儿": 2735,
      "允": 2736,
      "元": 2737,
      "兄": 2738,
      "充": 2739,
      "兆": 2740,
      "兇": 2741,
      "先": 2742,
      "光": 2743,
      "克": 2744,
      "免": 2745,
      "児": 2746,
      "兒": 2747,
      "党": 2748,
      "入": 2749,
      "內": 2750,
      "全": 2751,
      "兩": 2752,
      "八": 2753,
      "公": 2754,
      "六": 2755,
      "兰": 2756,
      "共": 2757,
      "关": 2758,
      "兴": 2759,
      "兵": 2760,
      "其": 2761,
      "具": 2762,
      "典": 2763,
      "养": 2764,
      "兼": 2765,
      "内": 2766,
      "円": 2767,
      "冈": 2768,
      "冊": 2769,
      "册": 2770,
      "再": 2771,
      "冒": 2772,
      "写": 2773,
      "军": 2774,
      "农": 2775,
      "冠": 2776,
      "冬": 2777,
      "冯": 2778,
      "冰": 2779,
      "冲": 2780,
      "决": 2781,
      "况": 2782,
      "冷": 2783,
      "冻": 2784,
      "净": 2785,
      "准": 2786,
      "凉": 2787,
      "凌": 2788,
      "减": 2789,
      "凝": 2790,
      "几": 2791,
      "凡": 2792,
      "処": 2793,
      "凭": 2794,
      "凯": 2795,
      "凱": 2796,
      "凶": 2797,
      "凹": 2798,
      "出": 2799,
      "击": 2800,
      "函": 2801,
      "刀": 2802,
      "刃": 2803,
      "分": 2804,
      "切": 2805,
      "刈": 2806,
      "刊": 2807,
      "刑": 2808,
      "划": 2809,
      "列": 2810,
      "则": 2811,
      "刚": 2812,
      "创": 2813,
      "初": 2814,
      "删": 2815,
      "判": 2816,
      "別": 2817,
      "利": 2818,
      "刪": 2819,
      "别": 2820,
      "到": 2821,
      "制": 2822,
      "刷": 2823,
      "券": 2824,
      "刺": 2825,
      "刻": 2826,
      "剂": 2827,
      "則": 2828,
      "削": 2829,
      "前": 2830,
      "剑": 2831,
      "剔": 2832,
      "剖": 2833,
      "剛": 2834,
      "剝": 2835,
      "剣": 2836,
      "剤": 2837,
      "剥": 2838,
      "剧": 2839,
      "剩": 2840,
      "剪": 2841,
      "副": 2842,
      "割": 2843,
      "創": 2844,
      "剿": 2845,
      "劃": 2846,
      "劇": 2847,
      "劍": 2848,
      "劑": 2849,
      "力": 2850,
      "办": 2851,
      "功": 2852,
      "加": 2853,
      "务": 2854,
      "劣": 2855,
      "动": 2856,
      "助": 2857,
      "努": 2858,
      "劫": 2859,
      "励": 2860,
      "劳": 2861,
      "労": 2862,
      "効": 2863,
      "势": 2864,
      "勃": 2865,
      "勉": 2866,
      "勋": 2867,
      "勒": 2868,
      "動": 2869,
      "勘": 2870,
      "務": 2871,
      "勝": 2872,
      "勞": 2873,
      "募": 2874,
      "勢": 2875,
      "勤": 2876,
      "勧": 2877,
      "勳": 2878,
      "勵": 2879,
      "勸": 2880,
      "勾": 2881,
      "勿": 2882,
      "匂": 2883,
      "包": 2884,
      "匈": 2885,
      "化": 2886,
      "北": 2887,
      "匙": 2888,
      "匯": 2889,
      "匹": 2890,
      "区": 2891,
      "医": 2892,
      "匿": 2893,
      "區": 2894,
      "十": 2895,
      "千": 2896,
      "升": 2897,
      "午": 2898,
      "卉": 2899,
      "半": 2900,
      "华": 2901,
      "协": 2902,
      "卒": 2903,
      "卓": 2904,
      "協": 2905,
      "单": 2906,
      "卖": 2907,
      "南": 2908,
      "単": 2909,
      "博": 2910,
      "卜": 2911,
      "占": 2912,
      "卡": 2913,
      "卢": 2914,
      "卧": 2915,
      "卫": 2916,
      "印": 2917,
      "危": 2918,
      "即": 2919,
      "却": 2920,
      "卵": 2921,
      "卷": 2922,
      "卸": 2923,
      "卻": 2924,
      "卿": 2925,
      "厂": 2926,
      "厄": 2927,
      "厅": 2928,
      "历": 2929,
      "厉": 2930,
      "压": 2931,
      "厌": 2932,
      "厘": 2933,
      "厚": 2934,
      "原": 2935,
      "厢": 2936,
      "厭": 2937,
      "厲": 2938,
      "厳": 2939,
      "去": 2940,
      "参": 2941,
      "參": 2942,
      "又": 2943,
      "叉": 2944,
      "及": 2945,
      "友": 2946,
      "双": 2947,
      "反": 2948,
      "収": 2949,
      "发": 2950,
      "取": 2951,
      "受": 2952,
      "变": 2953,
      "叠": 2954,
      "叢": 2955,
      "口": 2956,
      "古": 2957,
      "句": 2958,
      "另": 2959,
      "叩": 2960,
      "只": 2961,
      "叫": 2962,
      "召": 2963,
      "可": 2964,
      "台": 2965,
      "史": 2966,
      "右": 2967,
      "叶": 2968,
      "号": 2969,
      "司": 2970,
      "吁": 2971,
      "吃": 2972,
      "各": 2973,
      "合": 2974,
      "吉": 2975,
      "吊": 2976,
      "同": 2977,
      "名": 2978,
      "后": 2979,
      "吐": 2980,
      "向": 2981,
      "吓": 2982,
      "吗": 2983,
      "君": 2984,
      "吞": 2985,
      "否": 2986,
      "吧": 2987,
      "含": 2988,
      "听": 2989,
      "启": 2990,
      "吳": 2991,
      "吴": 2992,
      "吸": 2993,
      "吹": 2994,
      "吻": 2995,
      "吾": 2996,
      "呂": 2997,
      "呆": 2998,
      "呈": 2999,
      "告": 3000,
      "员": 3001,
      "呢": 3002,
      "周": 3003,
      "呪": 3004,
      "味": 3005,
      "呼": 3006,
      "命": 3007,
      "和": 3008,
      "咎": 3009,
      "咒": 3010,
      "咖": 3011,
      "咙": 3012,
      "咨": 3013,
      "咬": 3014,
      "品": 3015,
      "哈": 3016,
      "响": 3017,
      "員": 3018,
      "哥": 3019,
      "哩": 3020,
      "哪": 3021,
      "哲": 3022,
      "哺": 3023,
      "唆": 3024,
      "唐": 3025,
      "售": 3026,
      "唯": 3027,
      "唱": 3028,
      "商": 3029,
      "問": 3030,
      "啓": 3031,
      "啟": 3032,
      "啡": 3033,
      "啤": 3034,
      "喀": 3035,
      "善": 3036,
      "喉": 3037,
      "喘": 3038,
      "喙": 3039,
      "喜": 3040,
      "喝": 3041,
      "喧": 3042,
      "喪": 3043,
      "喬": 3044,
      "單": 3045,
      "営": 3046,
      "喷": 3047,
      "嗅": 3048,
      "嗎": 3049,
      "嘆": 3050,
      "嘗": 3051,
      "嘘": 3052,
      "嘩": 3053,
      "嘲": 3054,
      "嘴": 3055,
      "噛": 3056,
      "器": 3057,
      "噴": 3058,
      "嚇": 3059,
      "嚐": 3060,
      "嚨": 3061,
      "嚴": 3062,
      "囊": 3063,
      "囚": 3064,
      "四": 3065,
      "回": 3066,
      "因": 3067,
      "团": 3068,
      "団": 3069,
      "园": 3070,
      "困": 3071,
      "囲": 3072,
      "図": 3073,
      "围": 3074,
      "固": 3075,
      "国": 3076,
      "图": 3077,
      "圈": 3078,
      "國": 3079,
      "圍": 3080,
      "圏": 3081,
      "園": 3082,
      "圓": 3083,
      "圖": 3084,
      "團": 3085,
      "土": 3086,
      "圣": 3087,
      "圧": 3088,
      "在": 3089,
      "地": 3090,
      "场": 3091,
      "圾": 3092,
      "址": 3093,
      "均": 3094,
      "坍": 3095,
      "坎": 3096,
      "坏": 3097,
      "坐": 3098,
      "坑": 3099,
      "块": 3100,
      "坚": 3101,
      "坛": 3102,
      "坟": 3103,
      "坠": 3104,
      "坡": 3105,
      "坦": 3106,
      "垃": 3107,
      "型": 3108,
      "垒": 3109,
      "垠": 3110,
      "垣": 3111,
      "垩": 3112,
      "垫": 3113,
      "埃": 3114,
      "埋": 3115,
      "城": 3116,
      "埔": 3117,
      "域": 3118,
      "執": 3119,
      "培": 3120,
      "基": 3121,
      "堂": 3122,
      "堅": 3123,
      "堆": 3124,
      "堊": 3125,
      "堕": 3126,
      "堡": 3127,
      "堤": 3128,
      "堪": 3129,
      "報": 3130,
      "場": 3131,
      "堵": 3132,
      "塊": 3133,
      "塌": 3134,
      "塑": 3135,
      "塔": 3136,
      "塗": 3137,
      "塞": 3138,
      "塩": 3139,
      "填": 3140,
      "塵": 3141,
      "境": 3142,
      "墊": 3143,
      "墓": 3144,
      "増": 3145,
      "墙": 3146,
      "墜": 3147,
      "增": 3148,
      "墟": 3149,
      "墨": 3150,
      "墮": 3151,
      "墳": 3152,
      "壁": 3153,
      "壇": 3154,
      "壊": 3155,
      "壓": 3156,
      "壘": 3157,
      "壞": 3158,
      "壤": 3159,
      "士": 3160,
      "壯": 3161,
      "声": 3162,
      "売": 3163,
      "壳": 3164,
      "处": 3165,
      "备": 3166,
      "変": 3167,
      "复": 3168,
      "夏": 3169,
      "夕": 3170,
      "外": 3171,
      "多": 3172,
      "夜": 3173,
      "够": 3174,
      "夠": 3175,
      "夢": 3176,
      "大": 3177,
      "天": 3178,
      "太": 3179,
      "夫": 3180,
      "央": 3181,
      "失": 3182,
      "头": 3183,
      "夷": 3184,
      "夸": 3185,
      "夹": 3186,
      "夺": 3187,
      "夾": 3188,
      "奇": 3189,
      "奈": 3190,
      "奉": 3191,
      "奋": 3192,
      "奎": 3193,
      "奏": 3194,
      "契": 3195,
      "奔": 3196,
      "奖": 3197,
      "套": 3198,
      "奠": 3199,
      "奢": 3200,
      "奥": 3201,
      "奧": 3202,
      "奪": 3203,
      "奮": 3204,
      "女": 3205,
      "奶": 3206,
      "她": 3207,
      "好": 3208,
      "如": 3209,
      "妇": 3210,
      "妙": 3211,
      "妨": 3212,
      "妮": 3213,
      "妻": 3214,
      "姆": 3215,
      "始": 3216,
      "委": 3217,
      "姫": 3218,
      "姬": 3219,
      "姻": 3220,
      "姿": 3221,
      "威": 3222,
      "娛": 3223,
      "娜": 3224,
      "娱": 3225,
      "婚": 3226,
      "婦": 3227,
      "婪": 3228,
      "婴": 3229,
      "媒": 3230,
      "媚": 3231,
      "媲": 3232,
      "嫌": 3233,
      "嫩": 3234,
      "嬰": 3235,
      "子": 3236,
      "孔": 3237,
      "字": 3238,
      "存": 3239,
      "孙": 3240,
      "孟": 3241,
      "季": 3242,
      "孤": 3243,
      "学": 3244,
      "孩": 3245,
      "孫": 3246,
      "孰": 3247,
      "學": 3248,
      "宁": 3249,
      "它": 3250,
      "宅": 3251,
      "宇": 3252,
      "守": 3253,
      "安": 3254,
      "完": 3255,
      "宗": 3256,
      "官": 3257,
      "宙": 3258,
      "定": 3259,
      "宛": 3260,
      "宜": 3261,
      "宝": 3262,
      "实": 3263,
      "実": 3264,
      "审": 3265,
      "客": 3266,
      "宣": 3267,
      "室": 3268,
      "宪": 3269,
      "宰": 3270,
      "害": 3271,
      "宴": 3272,
      "家": 3273,
      "容": 3274,
      "宽": 3275,
      "宾": 3276,
      "宿": 3277,
      "寂": 3278,
      "寄": 3279,
      "密": 3280,
      "寇": 3281,
      "富": 3282,
      "寒": 3283,
      "寓": 3284,
      "寝": 3285,
      "察": 3286,
      "寢": 3287,
      "實": 3288,
      "寧": 3289,
      "寨": 3290,
      "審": 3291,
      "寫": 3292,
      "寬": 3293,
      "寮": 3294,
      "寰": 3295,
      "寶": 3296,
      "寸": 3297,
      "对": 3298,
      "寺": 3299,
      "寻": 3300,
      "导": 3301,
      "対": 3302,
      "寿": 3303,
      "封": 3304,
      "専": 3305,
      "射": 3306,
      "将": 3307,
      "將": 3308,
      "專": 3309,
      "尊": 3310,
      "尋": 3311,
      "對": 3312,
      "導": 3313,
      "小": 3314,
      "少": 3315,
      "尔": 3316,
      "尖": 3317,
      "尘": 3318,
      "尚": 3319,
      "尝": 3320,
      "尤": 3321,
      "就": 3322,
      "尺": 3323,
      "尼": 3324,
      "尽": 3325,
      "尾": 3326,
      "局": 3327,
      "层": 3328,
      "居": 3329,
      "屆": 3330,
      "屈": 3331,
      "届": 3332,
      "屋": 3333,
      "屏": 3334,
      "展": 3335,
      "属": 3336,
      "屠": 3337,
      "層": 3338,
      "屬": 3339,
      "屯": 3340,
      "山": 3341,
      "屿": 3342,
      "岁": 3343,
      "岖": 3344,
      "岛": 3345,
      "岡": 3346,
      "岩": 3347,
      "岭": 3348,
      "岳": 3349,
      "岸": 3350,
      "峡": 3351,
      "峭": 3352,
      "峰": 3353,
      "島": 3354,
      "峻": 3355,
      "峽": 3356,
      "崇": 3357,
      "崎": 3358,
      "崖": 3359,
      "崗": 3360,
      "崙": 3361,
      "崩": 3362,
      "嵐": 3363,
      "嶄": 3364,
      "嶇": 3365,
      "嶺": 3366,
      "嶼": 3367,
      "巅": 3368,
      "巔": 3369,
      "川": 3370,
      "州": 3371,
      "巡": 3372,
      "巢": 3373,
      "巣": 3374,
      "工": 3375,
      "左": 3376,
      "巧": 3377,
      "巨": 3378,
      "差": 3379,
      "己": 3380,
      "已": 3381,
      "巴": 3382,
      "巷": 3383,
      "巻": 3384,
      "市": 3385,
      "布": 3386,
      "帅": 3387,
      "帆": 3388,
      "师": 3389,
      "希": 3390,
      "帐": 3391,
      "帕": 3392,
      "帜": 3393,
      "帝": 3394,
      "帥": 3395,
      "带": 3396,
      "師": 3397,
      "席": 3398,
      "帮": 3399,
      "帯": 3400,
      "帰": 3401,
      "帳": 3402,
      "帶": 3403,
      "常": 3404,
      "幅": 3405,
      "幕": 3406,
      "幟": 3407,
      "幣": 3408,
      "幫": 3409,
      "干": 3410,
      "平": 3411,
      "年": 3412,
      "并": 3413,
      "幸": 3414,
      "幹": 3415,
      "幻": 3416,
      "幼": 3417,
      "幽": 3418,
      "幾": 3419,
      "广": 3420,
      "庁": 3421,
      "広": 3422,
      "庄": 3423,
      "庆": 3424,
      "床": 3425,
      "序": 3426,
      "库": 3427,
      "应": 3428,
      "底": 3429,
      "店": 3430,
      "庙": 3431,
      "府": 3432,
      "庞": 3433,
      "废": 3434,
      "度": 3435,
      "座": 3436,
      "庫": 3437,
      "庭": 3438,
      "康": 3439,
      "廂": 3440,
      "廃": 3441,
      "廉": 3442,
      "廊": 3443,
      "廟": 3444,
      "廠": 3445,
      "廢": 3446,
      "廣": 3447,
      "廳": 3448,
      "延": 3449,
      "廷": 3450,
      "建": 3451,
      "开": 3452,
      "弁": 3453,
      "异": 3454,
      "弄": 3455,
      "弊": 3456,
      "式": 3457,
      "弓": 3458,
      "引": 3459,
      "弗": 3460,
      "弟": 3461,
      "张": 3462,
      "弥": 3463,
      "弦": 3464,
      "弧": 3465,
      "弯": 3466,
      "弱": 3467,
      "張": 3468,
      "強": 3469,
      "弹": 3470,
      "强": 3471,
      "弾": 3472,
      "彈": 3473,
      "彎": 3474,
      "归": 3475,
      "当": 3476,
      "录": 3477,
      "彙": 3478,
      "形": 3479,
      "彩": 3480,
      "彭": 3481,
      "彰": 3482,
      "影": 3483,
      "彷": 3484,
      "役": 3485,
      "彻": 3486,
      "彼": 3487,
      "彿": 3488,
      "往": 3489,
      "征": 3490,
      "径": 3491,
      "待": 3492,
      "很": 3493,
      "律": 3494,
      "後": 3495,
      "徐": 3496,
      "徑": 3497,
      "徒": 3498,
      "従": 3499,
      "得": 3500,
      "徙": 3501,
      "從": 3502,
      "御": 3503,
      "復": 3504,
      "循": 3505,
      "微": 3506,
      "徴": 3507,
      "徵": 3508,
      "德": 3509,
      "徹": 3510,
      "心": 3511,
      "必": 3512,
      "忆": 3513,
      "忍": 3514,
      "忒": 3515,
      "志": 3516,
      "忘": 3517,
      "忙": 3518,
      "応": 3519,
      "忧": 3520,
      "快": 3521,
      "念": 3522,
      "怀": 3523,
      "态": 3524,
      "怎": 3525,
      "怒": 3526,
      "怕": 3527,
      "怖": 3528,
      "思": 3529,
      "急": 3530,
      "性": 3531,
      "怨": 3532,
      "怪": 3533,
      "总": 3534,
      "恆": 3535,
      "恍": 3536,
      "恐": 3537,
      "恒": 3538,
      "恢": 3539,
      "恩": 3540,
      "息": 3541,
      "恰": 3542,
      "恶": 3543,
      "悅": 3544,
      "悉": 3545,
      "悖": 3546,
      "悟": 3547,
      "悠": 3548,
      "患": 3549,
      "您": 3550,
      "悪": 3551,
      "悬": 3552,
      "情": 3553,
      "惊": 3554,
      "惑": 3555,
      "惕": 3556,
      "惚": 3557,
      "惜": 3558,
      "惠": 3559,
      "惡": 3560,
      "惧": 3561,
      "惬": 3562,
      "惯": 3563,
      "惱": 3564,
      "想": 3565,
      "惹": 3566,
      "愈": 3567,
      "意": 3568,
      "愚": 3569,
      "愛": 3570,
      "感": 3571,
      "愤": 3572,
      "愿": 3573,
      "態": 3574,
      "慎": 3575,
      "慘": 3576,
      "慢": 3577,
      "慣": 3578,
      "慧": 3579,
      "慨": 3580,
      "慮": 3581,
      "慶": 3582,
      "慷": 3583,
      "憂": 3584,
      "憑": 3585,
      "憤": 3586,
      "憲": 3587,
      "憶": 3588,
      "憾": 3589,
      "懂": 3590,
      "應": 3591,
      "懒": 3592,
      "懲": 3593,
      "懶": 3594,
      "懷": 3595,
      "懸": 3596,
      "懼": 3597,
      "戈": 3598,
      "戏": 3599,
      "成": 3600,
      "我": 3601,
      "戒": 3602,
      "或": 3603,
      "战": 3604,
      "戚": 3605,
      "戦": 3606,
      "截": 3607,
      "戯": 3608,
      "戰": 3609,
      "戲": 3610,
      "戴": 3611,
      "戶": 3612,
      "户": 3613,
      "戻": 3614,
      "房": 3615,
      "所": 3616,
      "扇": 3617,
      "扉": 3618,
      "手": 3619,
      "才": 3620,
      "扎": 3621,
      "打": 3622,
      "扔": 3623,
      "払": 3624,
      "托": 3625,
      "扣": 3626,
      "执": 3627,
      "扩": 3628,
      "扫": 3629,
      "扯": 3630,
      "扱": 3631,
      "扶": 3632,
      "批": 3633,
      "找": 3634,
      "承": 3635,
      "技": 3636,
      "把": 3637,
      "抑": 3638,
      "抓": 3639,
      "投": 3640,
      "抗": 3641,
      "折": 3642,
      "抛": 3643,
      "抜": 3644,
      "択": 3645,
      "抢": 3646,
      "护": 3647,
      "报": 3648,
      "披": 3649,
      "抬": 3650,
      "抱": 3651,
      "抵": 3652,
      "抹": 3653,
      "押": 3654,
      "抽": 3655,
      "担": 3656,
      "拆": 3657,
      "拉": 3658,
      "拋": 3659,
      "拍": 3660,
      "拐": 3661,
      "拒": 3662,
      "拓": 3663,
      "拔": 3664,
      "拖": 3665,
      "拘": 3666,
      "招": 3667,
      "拜": 3668,
      "拝": 3669,
      "拟": 3670,
      "拠": 3671,
      "拡": 3672,
      "拥": 3673,
      "拨": 3674,
      "择": 3675,
      "括": 3676,
      "拯": 3677,
      "拳": 3678,
      "拷": 3679,
      "拼": 3680,
      "拿": 3681,
      "持": 3682,
      "指": 3683,
      "按": 3684,
      "挑": 3685,
      "挖": 3686,
      "挙": 3687,
      "挟": 3688,
      "挡": 3689,
      "挤": 3690,
      "挥": 3691,
      "挪": 3692,
      "挫": 3693,
      "振": 3694,
      "挺": 3695,
      "挽": 3696,
      "捉": 3697,
      "捐": 3698,
      "捕": 3699,
      "捜": 3700,
      "损": 3701,
      "换": 3702,
      "据": 3703,
      "捲": 3704,
      "捷": 3705,
      "掀": 3706,
      "掃": 3707,
      "授": 3708,
      "掉": 3709,
      "掌": 3710,
      "掏": 3711,
      "排": 3712,
      "掘": 3713,
      "掛": 3714,
      "掠": 3715,
      "採": 3716,
      "探": 3717,
      "掣": 3718,
      "接": 3719,
      "控": 3720,
      "推": 3721,
      "掩": 3722,
      "措": 3723,
      "掲": 3724,
      "掷": 3725,
      "掻": 3726,
      "揃": 3727,
      "描": 3728,
      "提": 3729,
      "插": 3730,
      "揚": 3731,
      "換": 3732,
      "握": 3733,
      "揣": 3734,
      "揭": 3735,
      "揮": 3736,
      "援": 3737,
      "搁": 3738,
      "損": 3739,
      "搖": 3740,
      "搜": 3741,
      "搞": 3742,
      "搬": 3743,
      "搭": 3744,
      "搶": 3745,
      "携": 3746,
      "搾": 3747,
      "摂": 3748,
      "摄": 3749,
      "摆": 3750,
      "摔": 3751,
      "摘": 3752,
      "摧": 3753,
      "摩": 3754,
      "摺": 3755,
      "撃": 3756,
      "撐": 3757,
      "撑": 3758,
      "撒": 3759,
      "撓": 3760,
      "撕": 3761,
      "撞": 3762,
      "撤": 3763,
      "撥": 3764,
      "播": 3765,
      "撮": 3766,
      "撰": 3767,
      "撲": 3768,
      "撼": 3769,
      "擁": 3770,
      "擅": 3771,
      "擇": 3772,
      "擊": 3773,
      "擋": 3774,
      "操": 3775,
      "擎": 3776,
      "擔": 3777,
      "據": 3778,
      "擠": 3779,
      "擦": 3780,
      "擬": 3781,
      "擲": 3782,
      "擴": 3783,
      "擺": 3784,
      "擾": 3785,
      "攀": 3786,
      "攔": 3787,
      "攜": 3788,
      "攝": 3789,
      "攤": 3790,
      "支": 3791,
      "收": 3792,
      "改": 3793,
      "攻": 3794,
      "放": 3795,
      "政": 3796,
      "故": 3797,
      "效": 3798,
      "敌": 3799,
      "敍": 3800,
      "敏": 3801,
      "救": 3802,
      "敗": 3803,
      "教": 3804,
      "敛": 3805,
      "敞": 3806,
      "散": 3807,
      "敦": 3808,
      "敬": 3809,
      "数": 3810,
      "敲": 3811,
      "整": 3812,
      "敵": 3813,
      "敷": 3814,
      "數": 3815,
      "斂": 3816,
      "文": 3817,
      "斉": 3818,
      "斎": 3819,
      "斐": 3820,
      "斗": 3821,
      "料": 3822,
      "斜": 3823,
      "斤": 3824,
      "斥": 3825,
      "断": 3826,
      "斯": 3827,
      "新": 3828,
      "斷": 3829,
      "方": 3830,
      "於": 3831,
      "施": 3832,
      "旁": 3833,
      "旅": 3834,
      "旋": 3835,
      "族": 3836,
      "旗": 3837,
      "无": 3838,
      "既": 3839,
      "日": 3840,
      "旦": 3841,
      "旧": 3842,
      "旨": 3843,
      "早": 3844,
      "旬": 3845,
      "旱": 3846,
      "时": 3847,
      "旺": 3848,
      "昂": 3849,
      "昇": 3850,
      "昌": 3851,
      "明": 3852,
      "易": 3853,
      "昔": 3854,
      "星": 3855,
      "映": 3856,
      "春": 3857,
      "昧": 3858,
      "昨": 3859,
      "昭": 3860,
      "是": 3861,
      "昼": 3862,
      "显": 3863,
      "時": 3864,
      "晓": 3865,
      "晚": 3866,
      "晝": 3867,
      "晨": 3868,
      "晩": 3869,
      "普": 3870,
      "景": 3871,
      "晰": 3872,
      "晴": 3873,
      "智": 3874,
      "暂": 3875,
      "暇": 3876,
      "暑": 3877,
      "暖": 3878,
      "暗": 3879,
      "暢": 3880,
      "暨": 3881,
      "暫": 3882,
      "暮": 3883,
      "暱": 3884,
      "暴": 3885,
      "暹": 3886,
      "曆": 3887,
      "曉": 3888,
      "曖": 3889,
      "曜": 3890,
      "曝": 3891,
      "曲": 3892,
      "更": 3893,
      "書": 3894,
      "曹": 3895,
      "曼": 3896,
      "曾": 3897,
      "替": 3898,
      "最": 3899,
      "會": 3900,
      "月": 3901,
      "有": 3902,
      "朋": 3903,
      "服": 3904,
      "朗": 3905,
      "望": 3906,
      "朝": 3907,
      "期": 3908,
      "木": 3909,
      "未": 3910,
      "末": 3911,
      "本": 3912,
      "札": 3913,
      "术": 3914,
      "朱": 3915,
      "机": 3916,
      "杀": 3917,
      "杂": 3918,
      "权": 3919,
      "杆": 3920,
      "杉": 3921,
      "李": 3922,
      "材": 3923,
      "村": 3924,
      "杜": 3925,
      "杞": 3926,
      "束": 3927,
      "条": 3928,
      "来": 3929,
      "杭": 3930,
      "杯": 3931,
      "杰": 3932,
      "東": 3933,
      "松": 3934,
      "板": 3935,
      "极": 3936,
      "构": 3937,
      "析": 3938,
      "林": 3939,
      "枚": 3940,
      "果": 3941,
      "枝": 3942,
      "枠": 3943,
      "枪": 3944,
      "架": 3945,
      "柄": 3946,
      "柏": 3947,
      "某": 3948,
      "染": 3949,
      "柔": 3950,
      "查": 3951,
      "柬": 3952,
      "柯": 3953,
      "柱": 3954,
      "柵": 3955,
      "査": 3956,
      "栄": 3957,
      "栅": 3958,
      "标": 3959,
      "栋": 3960,
      "栏": 3961,
      "树": 3962,
      "校": 3963,
      "样": 3964,
      "核": 3965,
      "根": 3966,
      "格": 3967,
      "栽": 3968,
      "框": 3969,
      "案": 3970,
      "桌": 3971,
      "桑": 3972,
      "档": 3973,
      "桥": 3974,
      "桩": 3975,
      "桶": 3976,
      "桿": 3977,
      "梁": 3978,
      "梅": 3979,
      "條": 3980,
      "梠": 3981,
      "梦": 3982,
      "梨": 3983,
      "梯": 3984,
      "梵": 3985,
      "检": 3986,
      "棄": 3987,
      "棍": 3988,
      "棒": 3989,
      "棕": 3990,
      "棚": 3991,
      "棟": 3992,
      "森": 3993,
      "棱": 3994,
      "棵": 3995,
      "棺": 3996,
      "椅": 3997,
      "植": 3998,
      "検": 3999,
      "楚": 4000,
      "業": 4001,
      "極": 4002,
      "楼": 4003,
      "楽": 4004,
      "概": 4005,
      "榄": 4006,
      "榈": 4007,
      "榜": 4008,
      "榨": 4009,
      "榮": 4010,
      "榴": 4011,
      "榻": 4012,
      "構": 4013,
      "槍": 4014,
      "様": 4015,
      "槽": 4016,
      "樁": 4017,
      "樂": 4018,
      "樓": 4019,
      "標": 4020,
      "模": 4021,
      "樣": 4022,
      "権": 4023,
      "横": 4024,
      "樹": 4025,
      "橄": 4026,
      "橇": 4027,
      "橋": 4028,
      "機": 4029,
      "橫": 4030,
      "橱": 4031,
      "檔": 4032,
      "檢": 4033,
      "檯": 4034,
      "櫃": 4035,
      "櫚": 4036,
      "櫥": 4037,
      "欄": 4038,
      "權": 4039,
      "欖": 4040,
      "欠": 4041,
      "次": 4042,
      "欢": 4043,
      "欣": 4044,
      "欧": 4045,
      "欲": 4046,
      "欺": 4047,
      "款": 4048,
      "歇": 4049,
      "歉": 4050,
      "歌": 4051,
      "歎": 4052,
      "歐": 4053,
      "歡": 4054,
      "止": 4055,
      "正": 4056,
      "此": 4057,
      "步": 4058,
      "武": 4059,
      "歧": 4060,
      "歩": 4061,
      "歪": 4062,
      "歯": 4063,
      "歲": 4064,
      "歳": 4065,
      "歴": 4066,
      "歷": 4067,
      "歸": 4068,
      "死": 4069,
      "殊": 4070,
      "残": 4071,
      "殖": 4072,
      "殘": 4073,
      "段": 4074,
      "殺": 4075,
      "殻": 4076,
      "殼": 4077,
      "殿": 4078,
      "毀": 4079,
      "毁": 4080,
      "毋": 4081,
      "母": 4082,
      "毎": 4083,
      "每": 4084,
      "毒": 4085,
      "比": 4086,
      "毕": 4087,
      "毛": 4088,
      "毫": 4089,
      "氏": 4090,
      "民": 4091,
      "气": 4092,
      "気": 4093,
      "氛": 4094,
      "氢": 4095,
      "氣": 4096,
      "氧": 4097,
      "氫": 4098,
      "氮": 4099,
      "氯": 4100,
      "水": 4101,
      "氷": 4102,
      "永": 4103,
      "汀": 4104,
      "汁": 4105,
      "求": 4106,
      "汇": 4107,
      "汉": 4108,
      "汗": 4109,
      "汚": 4110,
      "池": 4111,
      "污": 4112,
      "汤": 4113,
      "決": 4114,
      "汽": 4115,
      "沃": 4116,
      "沈": 4117,
      "沉": 4118,
      "沒": 4119,
      "沖": 4120,
      "沙": 4121,
      "没": 4122,
      "沢": 4123,
      "沮": 4124,
      "河": 4125,
      "油": 4126,
      "治": 4127,
      "沼": 4128,
      "沿": 4129,
      "況": 4130,
      "泄": 4131,
      "泉": 4132,
      "泊": 4133,
      "法": 4134,
      "泛": 4135,
      "泡": 4136,
      "波": 4137,
      "泥": 4138,
      "注": 4139,
      "泰": 4140,
      "泳": 4141,
      "泵": 4142,
      "泻": 4143,
      "泽": 4144,
      "洋": 4145,
      "洗": 4146,
      "洛": 4147,
      "洞": 4148,
      "津": 4149,
      "洩": 4150,
      "洪": 4151,
      "洲": 4152,
      "活": 4153,
      "派": 4154,
      "流": 4155,
      "浅": 4156,
      "测": 4157,
      "济": 4158,
      "浓": 4159,
      "浜": 4160,
      "浩": 4161,
      "浪": 4162,
      "浮": 4163,
      "海": 4164,
      "浸": 4165,
      "涂": 4166,
      "涅": 4167,
      "消": 4168,
      "涉": 4169,
      "涌": 4170,
      "涜": 4171,
      "润": 4172,
      "涯": 4173,
      "液": 4174,
      "涵": 4175,
      "涸": 4176,
      "涼": 4177,
      "淆": 4178,
      "淋": 4179,
      "淌": 4180,
      "淡": 4181,
      "淨": 4182,
      "深": 4183,
      "混": 4184,
      "淹": 4185,
      "添": 4186,
      "清": 4187,
      "済": 4188,
      "渊": 4189,
      "渐": 4190,
      "渓": 4191,
      "渔": 4192,
      "減": 4193,
      "渡": 4194,
      "渦": 4195,
      "温": 4196,
      "測": 4197,
      "港": 4198,
      "渴": 4199,
      "游": 4200,
      "湍": 4201,
      "湖": 4202,
      "湯": 4203,
      "湾": 4204,
      "湿": 4205,
      "満": 4206,
      "源": 4207,
      "準": 4208,
      "溜": 4209,
      "溝": 4210,
      "溢": 4211,
      "溪": 4212,
      "溫": 4213,
      "溯": 4214,
      "溼": 4215,
      "滅": 4216,
      "滋": 4217,
      "滑": 4218,
      "滕": 4219,
      "滚": 4220,
      "滝": 4221,
      "滞": 4222,
      "满": 4223,
      "滤": 4224,
      "滩": 4225,
      "滾": 4226,
      "滿": 4227,
      "漁": 4228,
      "漂": 4229,
      "漆": 4230,
      "漏": 4231,
      "演": 4232,
      "漠": 4233,
      "漢": 4234,
      "漫": 4235,
      "漸": 4236,
      "漿": 4237,
      "潔": 4238,
      "潛": 4239,
      "潜": 4240,
      "潤": 4241,
      "潦": 4242,
      "潮": 4243,
      "澀": 4244,
      "澤": 4245,
      "澳": 4246,
      "激": 4247,
      "濃": 4248,
      "濕": 4249,
      "濘": 4250,
      "濟": 4251,
      "濡": 4252,
      "濱": 4253,
      "濾": 4254,
      "瀆": 4255,
      "瀉": 4256,
      "瀑": 4257,
      "瀚": 4258,
      "灑": 4259,
      "灘": 4260,
      "灣": 4261,
      "火": 4262,
      "灭": 4263,
      "灯": 4264,
      "灵": 4265,
      "災": 4266,
      "灾": 4267,
      "炉": 4268,
      "炎": 4269,
      "炭": 4270,
      "炮": 4271,
      "炸": 4272,
      "点": 4273,
      "為": 4274,
      "炼": 4275,
      "烈": 4276,
      "烏": 4277,
      "烘": 4278,
      "烤": 4279,
      "烦": 4280,
      "烧": 4281,
      "热": 4282,
      "烹": 4283,
      "焉": 4284,
      "焚": 4285,
      "無": 4286,
      "焦": 4287,
      "焰": 4288,
      "然": 4289,
      "焼": 4290,
      "煉": 4291,
      "煤": 4292,
      "照": 4293,
      "煩": 4294,
      "煮": 4295,
      "熟": 4296,
      "熱": 4297,
      "燃": 4298,
      "燈": 4299,
      "燒": 4300,
      "燙": 4301,
      "營": 4302,
      "燥": 4303,
      "爆": 4304,
      "爐": 4305,
      "爪": 4306,
      "爬": 4307,
      "爭": 4308,
      "爱": 4309,
      "爲": 4310,
      "爵": 4311,
      "父": 4312,
      "爾": 4313,
      "牆": 4314,
      "片": 4315,
      "版": 4316,
      "牌": 4317,
      "牙": 4318,
      "牛": 4319,
      "牠": 4320,
      "牢": 4321,
      "牧": 4322,
      "物": 4323,
      "牲": 4324,
      "牵": 4325,
      "特": 4326,
      "牺": 4327,
      "牽": 4328,
      "犒": 4329,
      "犠": 4330,
      "犧": 4331,
      "犬": 4332,
      "犯": 4333,
      "状": 4334,
      "犹": 4335,
      "狀": 4336,
      "狂": 4337,
      "狙": 4338,
      "狩": 4339,
      "独": 4340,
      "狭": 4341,
      "狮": 4342,
      "狱": 4343,
      "狼": 4344,
      "猎": 4345,
      "猛": 4346,
      "猜": 4347,
      "猩": 4348,
      "献": 4349,
      "猶": 4350,
      "獄": 4351,
      "獅": 4352,
      "獎": 4353,
      "獨": 4354,
      "獭": 4355,
      "獲": 4356,
      "獵": 4357,
      "獸": 4358,
      "獺": 4359,
      "獻": 4360,
      "率": 4361,
      "玉": 4362,
      "王": 4363,
      "玛": 4364,
      "玩": 4365,
      "环": 4366,
      "现": 4367,
      "玻": 4368,
      "珀": 4369,
      "珊": 4370,
      "珍": 4371,
      "班": 4372,
      "現": 4373,
      "球": 4374,
      "理": 4375,
      "琉": 4376,
      "琳": 4377,
      "琴": 4378,
      "瑞": 4379,
      "瑟": 4380,
      "瑪": 4381,
      "璃": 4382,
      "環": 4383,
      "瓜": 4384,
      "瓣": 4385,
      "瓦": 4386,
      "瓶": 4387,
      "甄": 4388,
      "甘": 4389,
      "甚": 4390,
      "生": 4391,
      "產": 4392,
      "産": 4393,
      "甦": 4394,
      "用": 4395,
      "田": 4396,
      "由": 4397,
      "甲": 4398,
      "申": 4399,
      "电": 4400,
      "男": 4401,
      "町": 4402,
      "画": 4403,
      "畅": 4404,
      "界": 4405,
      "留": 4406,
      "畢": 4407,
      "略": 4408,
      "番": 4409,
      "畫": 4410,
      "異": 4411,
      "畳": 4412,
      "當": 4413,
      "疆": 4414,
      "疇": 4415,
      "疊": 4416,
      "疎": 4417,
      "疏": 4418,
      "疑": 4419,
      "疗": 4420,
      "疟": 4421,
      "疫": 4422,
      "疲": 4423,
      "疼": 4424,
      "疽": 4425,
      "疾": 4426,
      "病": 4427,
      "症": 4428,
      "痛": 4429,
      "痢": 4430,
      "瘓": 4431,
      "瘧": 4432,
      "療": 4433,
      "癌": 4434,
      "癱": 4435,
      "発": 4436,
      "登": 4437,
      "發": 4438,
      "白": 4439,
      "百": 4440,
      "的": 4441,
      "皆": 4442,
      "皇": 4443,
      "皮": 4444,
      "盆": 4445,
      "盈": 4446,
      "益": 4447,
      "盎": 4448,
      "盐": 4449,
      "监": 4450,
      "盔": 4451,
      "盖": 4452,
      "盗": 4453,
      "盘": 4454,
      "盛": 4455,
      "盜": 4456,
      "盟": 4457,
      "盡": 4458,
      "監": 4459,
      "盤": 4460,
      "盧": 4461,
      "盪": 4462,
      "目": 4463,
      "盲": 4464,
      "直": 4465,
      "相": 4466,
      "盾": 4467,
      "省": 4468,
      "看": 4469,
      "県": 4470,
      "真": 4471,
      "眠": 4472,
      "眨": 4473,
      "眺": 4474,
      "眼": 4475,
      "眾": 4476,
      "着": 4477,
      "睛": 4478,
      "睡": 4479,
      "督": 4480,
      "睹": 4481,
      "瞩": 4482,
      "瞬": 4483,
      "瞭": 4484,
      "瞰": 4485,
      "矗": 4486,
      "矛": 4487,
      "矢": 4488,
      "知": 4489,
      "矩": 4490,
      "短": 4491,
      "矮": 4492,
      "石": 4493,
      "矶": 4494,
      "码": 4495,
      "砂": 4496,
      "研": 4497,
      "砕": 4498,
      "砲": 4499,
      "破": 4500,
      "砸": 4501,
      "础": 4502,
      "硬": 4503,
      "确": 4504,
      "碉": 4505,
      "碍": 4506,
      "碎": 4507,
      "碑": 4508,
      "碟": 4509,
      "碩": 4510,
      "碰": 4511,
      "碱": 4512,
      "碳": 4513,
      "確": 4514,
      "碼": 4515,
      "磁": 4516,
      "磅": 4517,
      "磨": 4518,
      "磯": 4519,
      "礎": 4520,
      "礙": 4521,
      "示": 4522,
      "礼": 4523,
      "社": 4524,
      "祀": 4525,
      "祉": 4526,
      "祕": 4527,
      "祖": 4528,
      "祝": 4529,
      "神": 4530,
      "祟": 4531,
      "祥": 4532,
      "票": 4533,
      "祭": 4534,
      "祸": 4535,
      "禁": 4536,
      "禍": 4537,
      "福": 4538,
      "禦": 4539,
      "禮": 4540,
      "离": 4541,
      "禽": 4542,
      "秀": 4543,
      "私": 4544,
      "秃": 4545,
      "种": 4546,
      "科": 4547,
      "秒": 4548,
      "秘": 4549,
      "租": 4550,
      "秩": 4551,
      "积": 4552,
      "称": 4553,
      "移": 4554,
      "稀": 4555,
      "稅": 4556,
      "程": 4557,
      "稍": 4558,
      "税": 4559,
      "種": 4560,
      "稱": 4561,
      "稳": 4562,
      "稼": 4563,
      "稽": 4564,
      "穆": 4565,
      "積": 4566,
      "穎": 4567,
      "穏": 4568,
      "穩": 4569,
      "穴": 4570,
      "究": 4571,
      "空": 4572,
      "穿": 4573,
      "突": 4574,
      "窃": 4575,
      "窄": 4576,
      "窑": 4577,
      "窒": 4578,
      "窓": 4579,
      "窗": 4580,
      "窟": 4581,
      "窩": 4582,
      "窯": 4583,
      "竄": 4584,
      "竊": 4585,
      "立": 4586,
      "站": 4587,
      "竜": 4588,
      "竞": 4589,
      "章": 4590,
      "童": 4591,
      "竭": 4592,
      "端": 4593,
      "競": 4594,
      "竹": 4595,
      "笔": 4596,
      "符": 4597,
      "第": 4598,
      "筆": 4599,
      "等": 4600,
      "筋": 4601,
      "筑": 4602,
      "筒": 4603,
      "答": 4604,
      "策": 4605,
      "签": 4606,
      "简": 4607,
      "箋": 4608,
      "算": 4609,
      "管": 4610,
      "箭": 4611,
      "箱": 4612,
      "節": 4613,
      "範": 4614,
      "篇": 4615,
      "築": 4616,
      "篡": 4617,
      "篮": 4618,
      "篷": 4619,
      "簡": 4620,
      "簽": 4621,
      "簿": 4622,
      "籃": 4623,
      "籍": 4624,
      "籤": 4625,
      "籲": 4626,
      "米": 4627,
      "类": 4628,
      "籽": 4629,
      "粉": 4630,
      "粒": 4631,
      "粗": 4632,
      "粘": 4633,
      "粟": 4634,
      "粹": 4635,
      "精": 4636,
      "糊": 4637,
      "糟": 4638,
      "糧": 4639,
      "系": 4640,
      "糾": 4641,
      "紀": 4642,
      "約": 4643,
      "紅": 4644,
      "紊": 4645,
      "紋": 4646,
      "納": 4647,
      "紐": 4648,
      "紓": 4649,
      "純": 4650,
      "紙": 4651,
      "級": 4652,
      "紛": 4653,
      "素": 4654,
      "索": 4655,
      "紧": 4656,
      "紮": 4657,
      "累": 4658,
      "細": 4659,
      "紹": 4660,
      "終": 4661,
      "組": 4662,
      "経": 4663,
      "結": 4664,
      "絕": 4665,
      "絞": 4666,
      "絡": 4667,
      "給": 4668,
      "統": 4669,
      "絲": 4670,
      "絵": 4671,
      "絶": 4672,
      "經": 4673,
      "継": 4674,
      "続": 4675,
      "綜": 4676,
      "綠": 4677,
      "綫": 4678,
      "維": 4679,
      "網": 4680,
      "綴": 4681,
      "綻": 4682,
      "綽": 4683,
      "綿": 4684,
      "緊": 4685,
      "総": 4686,
      "緒": 4687,
      "線": 4688,
      "緝": 4689,
      "緣": 4690,
      "編": 4691,
      "緩": 4692,
      "緯": 4693,
      "練": 4694,
      "緹": 4695,
      "緻": 4696,
      "縛": 4697,
      "縦": 4698,
      "縫": 4699,
      "縮": 4700,
      "縱": 4701,
      "總": 4702,
      "績": 4703,
      "繁": 4704,
      "織": 4705,
      "繚": 4706,
      "繞": 4707,
      "繪": 4708,
      "繫": 4709,
      "繰": 4710,
      "繳": 4711,
      "繼": 4712,
      "纂": 4713,
      "續": 4714,
      "纖": 4715,
      "纜": 4716,
      "红": 4717,
      "约": 4718,
      "级": 4719,
      "纪": 4720,
      "纯": 4721,
      "纱": 4722,
      "纳": 4723,
      "纵": 4724,
      "纷": 4725,
      "纸": 4726,
      "纹": 4727,
      "纽": 4728,
      "线": 4729,
      "练": 4730,
      "组": 4731,
      "细": 4732,
      "织": 4733,
      "终": 4734,
      "经": 4735,
      "结": 4736,
      "绕": 4737,
      "绘": 4738,
      "给": 4739,
      "络": 4740,
      "绝": 4741,
      "统": 4742,
      "继": 4743,
      "绩": 4744,
      "绪": 4745,
      "续": 4746,
      "维": 4747,
      "综": 4748,
      "绿": 4749,
      "缆": 4750,
      "缉": 4751,
      "缓": 4752,
      "编": 4753,
      "缘": 4754,
      "缝": 4755,
      "缠": 4756,
      "缩": 4757,
      "缪": 4758,
      "缭": 4759,
      "缴": 4760,
      "缺": 4761,
      "罂": 4762,
      "罄": 4763,
      "罌": 4764,
      "网": 4765,
      "罕": 4766,
      "罗": 4767,
      "罚": 4768,
      "罠": 4769,
      "罪": 4770,
      "置": 4771,
      "罰": 4772,
      "署": 4773,
      "羅": 4774,
      "美": 4775,
      "羞": 4776,
      "群": 4777,
      "義": 4778,
      "羽": 4779,
      "翌": 4780,
      "習": 4781,
      "翔": 4782,
      "翰": 4783,
      "翱": 4784,
      "翻": 4785,
      "耀": 4786,
      "老": 4787,
      "考": 4788,
      "者": 4789,
      "而": 4790,
      "耐": 4791,
      "耕": 4792,
      "耳": 4793,
      "耶": 4794,
      "耸": 4795,
      "聆": 4796,
      "聊": 4797,
      "职": 4798,
      "联": 4799,
      "聖": 4800,
      "聚": 4801,
      "聞": 4802,
      "聯": 4803,
      "聲": 4804,
      "聳": 4805,
      "聴": 4806,
      "職": 4807,
      "聽": 4808,
      "肆": 4809,
      "肉": 4810,
      "肚": 4811,
      "肝": 4812,
      "肠": 4813,
      "股": 4814,
      "肢": 4815,
      "肥": 4816,
      "肩": 4817,
      "肯": 4818,
      "育": 4819,
      "肺": 4820,
      "胀": 4821,
      "胁": 4822,
      "胆": 4823,
      "背": 4824,
      "胎": 4825,
      "胜": 4826,
      "胞": 4827,
      "胡": 4828,
      "胶": 4829,
      "能": 4830,
      "脅": 4831,
      "脈": 4832,
      "脉": 4833,
      "脏": 4834,
      "脑": 4835,
      "脚": 4836,
      "脫": 4837,
      "脱": 4838,
      "脳": 4839,
      "脹": 4840,
      "腊": 4841,
      "腐": 4842,
      "腕": 4843,
      "腦": 4844,
      "腫": 4845,
      "腰": 4846,
      "腳": 4847,
      "腸": 4848,
      "腹": 4849,
      "腺": 4850,
      "腿": 4851,
      "膀": 4852,
      "膜": 4853,
      "膨": 4854,
      "膳": 4855,
      "膽": 4856,
      "臆": 4857,
      "臓": 4858,
      "臘": 4859,
      "臟": 4860,
      "臣": 4861,
      "臥": 4862,
      "臨": 4863,
      "自": 4864,
      "至": 4865,
      "致": 4866,
      "臺": 4867,
      "與": 4868,
      "興": 4869,
      "舉": 4870,
      "舊": 4871,
      "舍": 4872,
      "舎": 4873,
      "舒": 4874,
      "舗": 4875,
      "舞": 4876,
      "航": 4877,
      "般": 4878,
      "舰": 4879,
      "舱": 4880,
      "船": 4881,
      "艇": 4882,
      "艘": 4883,
      "艙": 4884,
      "艦": 4885,
      "良": 4886,
      "艰": 4887,
      "艱": 4888,
      "色": 4889,
      "艺": 4890,
      "艾": 4891,
      "节": 4892,
      "芝": 4893,
      "芬": 4894,
      "芯": 4895,
      "花": 4896,
      "芳": 4897,
      "芸": 4898,
      "苏": 4899,
      "苗": 4900,
      "若": 4901,
      "苦": 4902,
      "英": 4903,
      "苹": 4904,
      "茂": 4905,
      "范": 4906,
      "茜": 4907,
      "茨": 4908,
      "茲": 4909,
      "茶": 4910,
      "草": 4911,
      "荐": 4912,
      "荒": 4913,
      "荡": 4914,
      "荣": 4915,
      "药": 4916,
      "荷": 4917,
      "莉": 4918,
      "莊": 4919,
      "莎": 4920,
      "莨": 4921,
      "莫": 4922,
      "莱": 4923,
      "获": 4924,
      "菊": 4925,
      "菌": 4926,
      "菜": 4927,
      "菪": 4928,
      "華": 4929,
      "菲": 4930,
      "萊": 4931,
      "营": 4932,
      "萨": 4933,
      "萬": 4934,
      "落": 4935,
      "葉": 4936,
      "著": 4937,
      "葛": 4938,
      "董": 4939,
      "葬": 4940,
      "葱": 4941,
      "蒂": 4942,
      "蒙": 4943,
      "蒸": 4944,
      "蓄": 4945,
      "蓋": 4946,
      "蓬": 4947,
      "蔑": 4948,
      "蔥": 4949,
      "蔵": 4950,
      "蔽": 4951,
      "蕩": 4952,
      "蕪": 4953,
      "薄": 4954,
      "薦": 4955,
      "薩": 4956,
      "薪": 4957,
      "薬": 4958,
      "藉": 4959,
      "藍": 4960,
      "藏": 4961,
      "藝": 4962,
      "藤": 4963,
      "藥": 4964,
      "藩": 4965,
      "藻": 4966,
      "蘇": 4967,
      "蘋": 4968,
      "蘭": 4969,
      "虎": 4970,
      "虏": 4971,
      "虐": 4972,
      "虑": 4973,
      "虔": 4974,
      "處": 4975,
      "虚": 4976,
      "虛": 4977,
      "虜": 4978,
      "號": 4979,
      "虧": 4980,
      "虫": 4981,
      "虹": 4982,
      "虽": 4983,
      "蚁": 4984,
      "蚊": 4985,
      "蛇": 4986,
      "蜂": 4987,
      "蜃": 4988,
      "蜒": 4989,
      "蜜": 4990,
      "蜿": 4991,
      "蝎": 4992,
      "融": 4993,
      "螞": 4994,
      "螢": 4995,
      "螺": 4996,
      "蟲": 4997,
      "蟻": 4998,
      "蠍": 4999,
      "蠢": 5000,
      "血": 5001,
      "衆": 5002,
      "行": 5003,
      "術": 5004,
      "衔": 5005,
      "街": 5006,
      "衛": 5007,
      "衝": 5008,
      "衡": 5009,
      "衣": 5010,
      "补": 5011,
      "表": 5012,
      "衰": 5013,
      "袋": 5014,
      "袖": 5015,
      "被": 5016,
      "袭": 5017,
      "裁": 5018,
      "裂": 5019,
      "装": 5020,
      "裏": 5021,
      "裔": 5022,
      "裕": 5023,
      "補": 5024,
      "裝": 5025,
      "裡": 5026,
      "裤": 5027,
      "裸": 5028,
      "裹": 5029,
      "製": 5030,
      "複": 5031,
      "褒": 5032,
      "褥": 5033,
      "褲": 5034,
      "襲": 5035,
      "西": 5036,
      "要": 5037,
      "覆": 5038,
      "見": 5039,
      "規": 5040,
      "視": 5041,
      "覚": 5042,
      "覧": 5043,
      "親": 5044,
      "覲": 5045,
      "観": 5046,
      "覺": 5047,
      "覽": 5048,
      "觀": 5049,
      "见": 5050,
      "观": 5051,
      "规": 5052,
      "视": 5053,
      "览": 5054,
      "觉": 5055,
      "角": 5056,
      "解": 5057,
      "触": 5058,
      "觸": 5059,
      "言": 5060,
      "訂": 5061,
      "計": 5062,
      "訊": 5063,
      "討": 5064,
      "訓": 5065,
      "託": 5066,
      "記": 5067,
      "訛": 5068,
      "訟": 5069,
      "訪": 5070,
      "設": 5071,
      "許": 5072,
      "訳": 5073,
      "訴": 5074,
      "診": 5075,
      "註": 5076,
      "証": 5077,
      "詐": 5078,
      "評": 5079,
      "詛": 5080,
      "詞": 5081,
      "詡": 5082,
      "詢": 5083,
      "試": 5084,
      "詩": 5085,
      "話": 5086,
      "該": 5087,
      "詳": 5088,
      "詹": 5089,
      "誇": 5090,
      "誉": 5091,
      "誌": 5092,
      "認": 5093,
      "誕": 5094,
      "誘": 5095,
      "語": 5096,
      "誠": 5097,
      "誤": 5098,
      "說": 5099,
      "説": 5100,
      "読": 5101,
      "誰": 5102,
      "課": 5103,
      "調": 5104,
      "談": 5105,
      "請": 5106,
      "論": 5107,
      "諮": 5108,
      "諷": 5109,
      "諸": 5110,
      "諺": 5111,
      "諾": 5112,
      "謂": 5113,
      "謊": 5114,
      "講": 5115,
      "謝": 5116,
      "謬": 5117,
      "謹": 5118,
      "證": 5119,
      "識": 5120,
      "警": 5121,
      "譯": 5122,
      "議": 5123,
      "譲": 5124,
      "護": 5125,
      "譽": 5126,
      "讀": 5127,
      "變": 5128,
      "讐": 5129,
      "讓": 5130,
      "计": 5131,
      "订": 5132,
      "认": 5133,
      "讨": 5134,
      "让": 5135,
      "训": 5136,
      "议": 5137,
      "讯": 5138,
      "记": 5139,
      "讲": 5140,
      "许": 5141,
      "论": 5142,
      "讼": 5143,
      "讽": 5144,
      "设": 5145,
      "访": 5146,
      "证": 5147,
      "评": 5148,
      "诅": 5149,
      "识": 5150,
      "诈": 5151,
      "诉": 5152,
      "诊": 5153,
      "词": 5154,
      "译": 5155,
      "试": 5156,
      "诗": 5157,
      "诚": 5158,
      "话": 5159,
      "诞": 5160,
      "询": 5161,
      "该": 5162,
      "详": 5163,
      "语": 5164,
      "误": 5165,
      "诱": 5166,
      "说": 5167,
      "请": 5168,
      "诸": 5169,
      "诺": 5170,
      "读": 5171,
      "课": 5172,
      "调": 5173,
      "谈": 5174,
      "谋": 5175,
      "谎": 5176,
      "谢": 5177,
      "谨": 5178,
      "谷": 5179,
      "豁": 5180,
      "豊": 5181,
      "豐": 5182,
      "象": 5183,
      "豪": 5184,
      "豬": 5185,
      "豹": 5186,
      "貌": 5187,
      "貝": 5188,
      "負": 5189,
      "財": 5190,
      "貢": 5191,
      "貨": 5192,
      "販": 5193,
      "貪": 5194,
      "貫": 5195,
      "責": 5196,
      "貯": 5197,
      "貴": 5198,
      "貶": 5199,
      "買": 5200,
      "貸": 5201,
      "費": 5202,
      "貼": 5203,
      "貿": 5204,
      "賀": 5205,
      "賂": 5206,
      "賃": 5207,
      "賄": 5208,
      "資": 5209,
      "賈": 5210,
      "賊": 5211,
      "賑": 5212,
      "賓": 5213,
      "賛": 5214,
      "賞": 5215,
      "賠": 5216,
      "賣": 5217,
      "質": 5218,
      "賭": 5219,
      "賴": 5220,
      "賺": 5221,
      "購": 5222,
      "賽": 5223,
      "贈": 5224,
      "贊": 5225,
      "贏": 5226,
      "贝": 5227,
      "负": 5228,
      "贡": 5229,
      "财": 5230,
      "责": 5231,
      "败": 5232,
      "货": 5233,
      "质": 5234,
      "贪": 5235,
      "贬": 5236,
      "购": 5237,
      "贯": 5238,
      "贴": 5239,
      "贵": 5240,
      "贷": 5241,
      "贸": 5242,
      "费": 5243,
      "贺": 5244,
      "贼": 5245,
      "贾": 5246,
      "贿": 5247,
      "赁": 5248,
      "资": 5249,
      "赌": 5250,
      "赏": 5251,
      "赔": 5252,
      "赖": 5253,
      "赛": 5254,
      "赞": 5255,
      "赠": 5256,
      "赢": 5257,
      "赤": 5258,
      "赫": 5259,
      "走": 5260,
      "赴": 5261,
      "赶": 5262,
      "起": 5263,
      "趁": 5264,
      "超": 5265,
      "越": 5266,
      "趟": 5267,
      "趣": 5268,
      "足": 5269,
      "趾": 5270,
      "跃": 5271,
      "跋": 5272,
      "跌": 5273,
      "跑": 5274,
      "距": 5275,
      "跟": 5276,
      "跡": 5277,
      "跨": 5278,
      "路": 5279,
      "跳": 5280,
      "践": 5281,
      "踏": 5282,
      "踢": 5283,
      "踪": 5284,
      "踱": 5285,
      "踵": 5286,
      "蹄": 5287,
      "蹈": 5288,
      "蹤": 5289,
      "躋": 5290,
      "躍": 5291,
      "身": 5292,
      "車": 5293,
      "軌": 5294,
      "軍": 5295,
      "軟": 5296,
      "転": 5297,
      "軸": 5298,
      "軽": 5299,
      "較": 5300,
      "載": 5301,
      "輔": 5302,
      "輕": 5303,
      "輛": 5304,
      "輩": 5305,
      "輪": 5306,
      "輯": 5307,
      "輸": 5308,
      "輻": 5309,
      "轄": 5310,
      "轉": 5311,
      "轎": 5312,
      "车": 5313,
      "轨": 5314,
      "转": 5315,
      "轮": 5316,
      "软": 5317,
      "轴": 5318,
      "轻": 5319,
      "载": 5320,
      "轿": 5321,
      "较": 5322,
      "辅": 5323,
      "辆": 5324,
      "辈": 5325,
      "辐": 5326,
      "辑": 5327,
      "输": 5328,
      "辛": 5329,
      "辞": 5330,
      "辦": 5331,
      "辨": 5332,
      "辭": 5333,
      "辯": 5334,
      "農": 5335,
      "边": 5336,
      "辺": 5337,
      "込": 5338,
      "达": 5339,
      "迁": 5340,
      "迂": 5341,
      "迄": 5342,
      "迅": 5343,
      "过": 5344,
      "迈": 5345,
      "迎": 5346,
      "运": 5347,
      "近": 5348,
      "返": 5349,
      "还": 5350,
      "这": 5351,
      "进": 5352,
      "远": 5353,
      "违": 5354,
      "连": 5355,
      "迟": 5356,
      "迩": 5357,
      "迪": 5358,
      "迫": 5359,
      "述": 5360,
      "迴": 5361,
      "迷": 5362,
      "迹": 5363,
      "追": 5364,
      "退": 5365,
      "送": 5366,
      "适": 5367,
      "逃": 5368,
      "逆": 5369,
      "选": 5370,
      "逊": 5371,
      "透": 5372,
      "逐": 5373,
      "途": 5374,
      "逗": 5375,
      "這": 5376,
      "通": 5377,
      "逛": 5378,
      "逝": 5379,
      "速": 5380,
      "造": 5381,
      "連": 5382,
      "逮": 5383,
      "週": 5384,
      "進": 5385,
      "逸": 5386,
      "逻": 5387,
      "逼": 5388,
      "遂": 5389,
      "遅": 5390,
      "遇": 5391,
      "遊": 5392,
      "運": 5393,
      "遍": 5394,
      "過": 5395,
      "遏": 5396,
      "遐": 5397,
      "道": 5398,
      "達": 5399,
      "違": 5400,
      "遗": 5401,
      "遙": 5402,
      "遜": 5403,
      "遞": 5404,
      "遠": 5405,
      "遡": 5406,
      "遣": 5407,
      "遥": 5408,
      "遨": 5409,
      "適": 5410,
      "遭": 5411,
      "遮": 5412,
      "遲": 5413,
      "遵": 5414,
      "遷": 5415,
      "選": 5416,
      "遺": 5417,
      "避": 5418,
      "邀": 5419,
      "邁": 5420,
      "還": 5421,
      "邊": 5422,
      "邏": 5423,
      "邓": 5424,
      "那": 5425,
      "邦": 5426,
      "邮": 5427,
      "邸": 5428,
      "邻": 5429,
      "郁": 5430,
      "郊": 5431,
      "郡": 5432,
      "部": 5433,
      "郵": 5434,
      "郷": 5435,
      "都": 5436,
      "鄉": 5437,
      "鄧": 5438,
      "鄰": 5439,
      "酋": 5440,
      "配": 5441,
      "酒": 5442,
      "酬": 5443,
      "酸": 5444,
      "醇": 5445,
      "醉": 5446,
      "醒": 5447,
      "醜": 5448,
      "醫": 5449,
      "醸": 5450,
      "釀": 5451,
      "采": 5452,
      "釈": 5453,
      "释": 5454,
      "釋": 5455,
      "里": 5456,
      "重": 5457,
      "野": 5458,
      "量": 5459,
      "釐": 5460,
      "金": 5461,
      "釘": 5462,
      "針": 5463,
      "鈣": 5464,
      "鉄": 5465,
      "鉗": 5466,
      "鉴": 5467,
      "銀": 5468,
      "銃": 5469,
      "銅": 5470,
      "銘": 5471,
      "銜": 5472,
      "銳": 5473,
      "銷": 5474,
      "鋃": 5475,
      "鋒": 5476,
      "鋪": 5477,
      "鋭": 5478,
      "鋼": 5479,
      "錄": 5480,
      "錢": 5481,
      "錦": 5482,
      "錨": 5483,
      "錫": 5484,
      "錯": 5485,
      "録": 5486,
      "鍊": 5487,
      "鍛": 5488,
      "鍵": 5489,
      "鎊": 5490,
      "鎖": 5491,
      "鎢": 5492,
      "鎧": 5493,
      "鎮": 5494,
      "鏟": 5495,
      "鏡": 5496,
      "鏢": 5497,
      "鐘": 5498,
      "鐙": 5499,
      "鐵": 5500,
      "鐺": 5501,
      "鑑": 5502,
      "鑰": 5503,
      "鑲": 5504,
      "鑽": 5505,
      "针": 5506,
      "钉": 5507,
      "钙": 5508,
      "钟": 5509,
      "钢": 5510,
      "钥": 5511,
      "钱": 5512,
      "钳": 5513,
      "钻": 5514,
      "铁": 5515,
      "铜": 5516,
      "银": 5517,
      "铺": 5518,
      "销": 5519,
      "锁": 5520,
      "锅": 5521,
      "锋": 5522,
      "锐": 5523,
      "错": 5524,
      "锡": 5525,
      "锦": 5526,
      "键": 5527,
      "锻": 5528,
      "镇": 5529,
      "镑": 5530,
      "镖": 5531,
      "镜": 5532,
      "長": 5533,
      "长": 5534,
      "門": 5535,
      "閃": 5536,
      "閉": 5537,
      "開": 5538,
      "閒": 5539,
      "間": 5540,
      "関": 5541,
      "閥": 5542,
      "閱": 5543,
      "閲": 5544,
      "闆": 5545,
      "闊": 5546,
      "闖": 5547,
      "闘": 5548,
      "關": 5549,
      "闢": 5550,
      "门": 5551,
      "闪": 5552,
      "闭": 5553,
      "问": 5554,
      "闲": 5555,
      "间": 5556,
      "闹": 5557,
      "闻": 5558,
      "阀": 5559,
      "阅": 5560,
      "阔": 5561,
      "队": 5562,
      "阪": 5563,
      "阱": 5564,
      "防": 5565,
      "阳": 5566,
      "阴": 5567,
      "阵": 5568,
      "阶": 5569,
      "阻": 5570,
      "阿": 5571,
      "陀": 5572,
      "附": 5573,
      "际": 5574,
      "陆": 5575,
      "陌": 5576,
      "降": 5577,
      "限": 5578,
      "陡": 5579,
      "院": 5580,
      "陣": 5581,
      "除": 5582,
      "陥": 5583,
      "陨": 5584,
      "险": 5585,
      "陪": 5586,
      "陰": 5587,
      "陵": 5588,
      "陶": 5589,
      "陷": 5590,
      "陸": 5591,
      "険": 5592,
      "陽": 5593,
      "隆": 5594,
      "隊": 5595,
      "階": 5596,
      "随": 5597,
      "隐": 5598,
      "隔": 5599,
      "隕": 5600,
      "隙": 5601,
      "際": 5602,
      "障": 5603,
      "隠": 5604,
      "隣": 5605,
      "隧": 5606,
      "隨": 5607,
      "險": 5608,
      "隱": 5609,
      "隻": 5610,
      "难": 5611,
      "雃": 5612,
      "雄": 5613,
      "雅": 5614,
      "集": 5615,
      "雇": 5616,
      "雑": 5617,
      "雕": 5618,
      "雖": 5619,
      "雙": 5620,
      "雜": 5621,
      "離": 5622,
      "難": 5623,
      "雨": 5624,
      "雪": 5625,
      "雰": 5626,
      "雲": 5627,
      "零": 5628,
      "雷": 5629,
      "電": 5630,
      "需": 5631,
      "霄": 5632,
      "震": 5633,
      "霊": 5634,
      "霍": 5635,
      "露": 5636,
      "靈": 5637,
      "青": 5638,
      "静": 5639,
      "靜": 5640,
      "非": 5641,
      "靠": 5642,
      "面": 5643,
      "革": 5644,
      "靭": 5645,
      "靴": 5646,
      "鞋": 5647,
      "鞍": 5648,
      "鞭": 5649,
      "韋": 5650,
      "韓": 5651,
      "韦": 5652,
      "韩": 5653,
      "音": 5654,
      "韵": 5655,
      "響": 5656,
      "頁": 5657,
      "頂": 5658,
      "頃": 5659,
      "項": 5660,
      "順": 5661,
      "須": 5662,
      "預": 5663,
      "頒": 5664,
      "頓": 5665,
      "頗": 5666,
      "領": 5667,
      "頭": 5668,
      "頻": 5669,
      "頼": 5670,
      "顆": 5671,
      "題": 5672,
      "額": 5673,
      "顏": 5674,
      "顔": 5675,
      "顕": 5676,
      "願": 5677,
      "顛": 5678,
      "類": 5679,
      "顧": 5680,
      "顯": 5681,
      "页": 5682,
      "顶": 5683,
      "顷": 5684,
      "项": 5685,
      "顺": 5686,
      "须": 5687,
      "顾": 5688,
      "顿": 5689,
      "颁": 5690,
      "预": 5691,
      "领": 5692,
      "颇": 5693,
      "频": 5694,
      "颗": 5695,
      "题": 5696,
      "颜": 5697,
      "额": 5698,
      "颠": 5699,
      "風": 5700,
      "颱": 5701,
      "颶": 5702,
      "风": 5703,
      "飓": 5704,
      "飛": 5705,
      "飞": 5706,
      "食": 5707,
      "飪": 5708,
      "飯": 5709,
      "飲": 5710,
      "飼": 5711,
      "飽": 5712,
      "飾": 5713,
      "養": 5714,
      "餐": 5715,
      "餘": 5716,
      "餚": 5717,
      "館": 5718,
      "餵": 5719,
      "饪": 5720,
      "饭": 5721,
      "饮": 5722,
      "饰": 5723,
      "饱": 5724,
      "馆": 5725,
      "馈": 5726,
      "馊": 5727,
      "首": 5728,
      "香": 5729,
      "馬": 5730,
      "馮": 5731,
      "馳": 5732,
      "馴": 5733,
      "駁": 5734,
      "駅": 5735,
      "駆": 5736,
      "駐": 5737,
      "駕": 5738,
      "駛": 5739,
      "駝": 5740,
      "騎": 5741,
      "験": 5742,
      "騙": 5743,
      "騷": 5744,
      "驅": 5745,
      "驗": 5746,
      "驚": 5747,
      "马": 5748,
      "驰": 5749,
      "驱": 5750,
      "驳": 5751,
      "驶": 5752,
      "驻": 5753,
      "驼": 5754,
      "驾": 5755,
      "验": 5756,
      "骑": 5757,
      "骗": 5758,
      "骚": 5759,
      "骨": 5760,
      "髒": 5761,
      "體": 5762,
      "高": 5763,
      "髮": 5764,
      "鬆": 5765,
      "鬥": 5766,
      "鬧": 5767,
      "鬱": 5768,
      "魅": 5769,
      "魏": 5770,
      "魚": 5771,
      "魯": 5772,
      "鮑": 5773,
      "鮮": 5774,
      "鱼": 5775,
      "鲁": 5776,
      "鲍": 5777,
      "鲜": 5778,
      "鳥": 5779,
      "鳴": 5780,
      "鴉": 5781,
      "鵝": 5782,
      "鵡": 5783,
      "鶇": 5784,
      "鷲": 5785,
      "鷹": 5786,
      "鸚": 5787,
      "鸟": 5788,
      "鸦": 5789,
      "鸫": 5790,
      "鹅": 5791,
      "鹉": 5792,
      "鹦": 5793,
      "鹰": 5794,
      "鹼": 5795,
      "鹽": 5796,
      "鹿": 5797,
      "麋": 5798,
      "麓": 5799,
      "麗": 5800,
      "麥": 5801,
      "麦": 5802,
      "麻": 5803,
      "麼": 5804,
      "麽": 5805,
      "麾": 5806,
      "黃": 5807,
      "黄": 5808,
      "黎": 5809,
      "黏": 5810,
      "黑": 5811,
      "黒": 5812,
      "默": 5813,
      "黙": 5814,
      "點": 5815,
      "黨": 5816,
      "鼎": 5817,
      "鼓": 5818,
      "鼻": 5819,
      "齊": 5820,
      "齋": 5821,
      "齐": 5822,
      "齒": 5823,
      "齡": 5824,
      "齢": 5825,
      "齿": 5826,
      "龄": 5827,
      "龍": 5828,
      "龐": 5829,
      "龙": 5830,
      "가": 5831,
      "각": 5832,
      "간": 5833,
      "갇": 5834,
      "갈": 5835,
      "감": 5836,
      "갑": 5837,
      "값": 5838,
      "갔": 5839,
      "강": 5840,
      "갖": 5841,
      "같": 5842,
      "개": 5843,
      "객": 5844,
      "갤": 5845,
      "걀": 5846,
      "거": 5847,
      "걱": 5848,
      "건": 5849,
      "걷": 5850,
      "걸": 5851,
      "검": 5852,
      "겁": 5853,
      "것": 5854,
      "게": 5855,
      "겐": 5856,
      "겔": 5857,
      "겠": 5858,
      "겨": 5859,
      "격": 5860,
      "겪": 5861,
      "견": 5862,
      "결": 5863,
      "겹": 5864,
      "겼": 5865,
      "경": 5866,
      "계": 5867,
      "고": 5868,
      "곡": 5869,
      "곤": 5870,
      "골": 5871,
      "곰": 5872,
      "곱": 5873,
      "곳": 5874,
      "공": 5875,
      "과": 5876,
      "관": 5877,
      "괄": 5878,
      "광": 5879,
      "괜": 5880,
      "괴": 5881,
      "굉": 5882,
      "교": 5883,
      "구": 5884,
      "국": 5885,
      "군": 5886,
      "굳": 5887,
      "굴": 5888,
      "굽": 5889,
      "궁": 5890,
      "권": 5891,
      "궤": 5892,
      "귀": 5893,
      "규": 5894,
      "균": 5895,
      "그": 5896,
      "극": 5897,
      "근": 5898,
      "글": 5899,
      "금": 5900,
      "급": 5901,
      "긍": 5902,
      "기": 5903,
      "긴": 5904,
      "길": 5905,
      "깃": 5906,
      "깅": 5907,
      "깊": 5908,
      "까": 5909,
      "깎": 5910,
      "깔": 5911,
      "깜": 5912,
      "깝": 5913,
      "깥": 5914,
      "깨": 5915,
      "꺼": 5916,
      "껏": 5917,
      "께": 5918,
      "껴": 5919,
      "꼭": 5920,
      "꼽": 5921,
      "꼿": 5922,
      "꽃": 5923,
      "꽤": 5924,
      "꾸": 5925,
      "꿈": 5926,
      "꿉": 5927,
      "꿨": 5928,
      "뀌": 5929,
      "뀐": 5930,
      "뀔": 5931,
      "끄": 5932,
      "끈": 5933,
      "끌": 5934,
      "끓": 5935,
      "끔": 5936,
      "끝": 5937,
      "끼": 5938,
      "낀": 5939,
      "낄": 5940,
      "낌": 5941,
      "나": 5942,
      "낙": 5943,
      "난": 5944,
      "날": 5945,
      "낡": 5946,
      "남": 5947,
      "납": 5948,
      "났": 5949,
      "낮": 5950,
      "내": 5951,
      "낸": 5952,
      "낼": 5953,
      "냄": 5954,
      "냅": 5955,
      "냈": 5956,
      "냉": 5957,
      "냐": 5958,
      "냥": 5959,
      "너": 5960,
      "널": 5961,
      "넓": 5962,
      "넘": 5963,
      "넙": 5964,
      "넣": 5965,
      "네": 5966,
      "넨": 5967,
      "넷": 5968,
      "녀": 5969,
      "녁": 5970,
      "년": 5971,
      "념": 5972,
      "녕": 5973,
      "노": 5974,
      "녹": 5975,
      "논": 5976,
      "놀": 5977,
      "놈": 5978,
      "농": 5979,
      "높": 5980,
      "놓": 5981,
      "뇌": 5982,
      "누": 5983,
      "눈": 5984,
      "눌": 5985,
      "뉩": 5986,
      "뉴": 5987,
      "느": 5988,
      "는": 5989,
      "늘": 5990,
      "능": 5991,
      "니": 5992,
      "닌": 5993,
      "닐": 5994,
      "님": 5995,
      "닙": 5996,
      "닝": 5997,
      "다": 5998,
      "닥": 5999,
      "단": 6000,
      "닫": 6001,
      "달": 6002,
      "담": 6003,
      "답": 6004,
      "닷": 6005,
      "당": 6006,
      "닿": 6007,
      "대": 6008,
      "댄": 6009,
      "댓": 6010,
      "댔": 6011,
      "더": 6012,
      "덕": 6013,
      "던": 6014,
      "덜": 6015,
      "덟": 6016,
      "덤": 6017,
      "덧": 6018,
      "덩": 6019,
      "덫": 6020,
      "덮": 6021,
      "데": 6022,
      "덴": 6023,
      "델": 6024,
      "도": 6025,
      "독": 6026,
      "돈": 6027,
      "돌": 6028,
      "돕": 6029,
      "동": 6030,
      "돼": 6031,
      "됐": 6032,
      "되": 6033,
      "된": 6034,
      "될": 6035,
      "됨": 6036,
      "됩": 6037,
      "됭": 6038,
      "두": 6039,
      "둔": 6040,
      "둘": 6041,
      "둡": 6042,
      "둥": 6043,
      "뒤": 6044,
      "뒷": 6045,
      "듀": 6046,
      "드": 6047,
      "득": 6048,
      "든": 6049,
      "듣": 6050,
      "들": 6051,
      "듭": 6052,
      "듯": 6053,
      "등": 6054,
      "디": 6055,
      "딘": 6056,
      "딛": 6057,
      "딜": 6058,
      "딩": 6059,
      "따": 6060,
      "딱": 6061,
      "땅": 6062,
      "때": 6063,
      "떠": 6064,
      "떤": 6065,
      "떨": 6066,
      "떻": 6067,
      "떼": 6068,
      "또": 6069,
      "똥": 6070,
      "뚝": 6071,
      "뚫": 6072,
      "뛰": 6073,
      "뜨": 6074,
      "뜰": 6075,
      "뜻": 6076,
      "띄": 6077,
      "라": 6078,
      "락": 6079,
      "란": 6080,
      "랄": 6081,
      "람": 6082,
      "랍": 6083,
      "랐": 6084,
      "랑": 6085,
      "래": 6086,
      "랙": 6087,
      "랜": 6088,
      "램": 6089,
      "랩": 6090,
      "랫": 6091,
      "랬": 6092,
      "랭": 6093,
      "략": 6094,
      "량": 6095,
      "러": 6096,
      "럭": 6097,
      "런": 6098,
      "럴": 6099,
      "럼": 6100,
      "럽": 6101,
      "렀": 6102,
      "렇": 6103,
      "레": 6104,
      "렉": 6105,
      "렌": 6106,
      "렘": 6107,
      "렙": 6108,
      "렝": 6109,
      "려": 6110,
      "력": 6111,
      "련": 6112,
      "렬": 6113,
      "렴": 6114,
      "렵": 6115,
      "렸": 6116,
      "령": 6117,
      "례": 6118,
      "로": 6119,
      "록": 6120,
      "론": 6121,
      "롤": 6122,
      "롬": 6123,
      "롭": 6124,
      "롯": 6125,
      "롱": 6126,
      "뢰": 6127,
      "료": 6128,
      "룡": 6129,
      "루": 6130,
      "룩": 6131,
      "룰": 6132,
      "룸": 6133,
      "룹": 6134,
      "룻": 6135,
      "룽": 6136,
      "뤄": 6137,
      "뤼": 6138,
      "류": 6139,
      "륙": 6140,
      "륜": 6141,
      "률": 6142,
      "륨": 6143,
      "륭": 6144,
      "르": 6145,
      "른": 6146,
      "를": 6147,
      "름": 6148,
      "릅": 6149,
      "릉": 6150,
      "리": 6151,
      "릭": 6152,
      "린": 6153,
      "릴": 6154,
      "림": 6155,
      "립": 6156,
      "릿": 6157,
      "링": 6158,
      "마": 6159,
      "막": 6160,
      "만": 6161,
      "많": 6162,
      "말": 6163,
      "망": 6164,
      "맞": 6165,
      "매": 6166,
      "맥": 6167,
      "맨": 6168,
      "맵": 6169,
      "맷": 6170,
      "맹": 6171,
      "맺": 6172,
      "머": 6173,
      "먹": 6174,
      "먼": 6175,
      "멀": 6176,
      "멈": 6177,
      "멋": 6178,
      "멍": 6179,
      "메": 6180,
      "멕": 6181,
      "멘": 6182,
      "멜": 6183,
      "멤": 6184,
      "며": 6185,
      "면": 6186,
      "멸": 6187,
      "명": 6188,
      "몇": 6189,
      "모": 6190,
      "목": 6191,
      "몬": 6192,
      "몰": 6193,
      "몸": 6194,
      "몹": 6195,
      "못": 6196,
      "몽": 6197,
      "묘": 6198,
      "무": 6199,
      "묵": 6200,
      "문": 6201,
      "묻": 6202,
      "물": 6203,
      "뭄": 6204,
      "뭇": 6205,
      "뭐": 6206,
      "뮤": 6207,
      "뮬": 6208,
      "므": 6209,
      "미": 6210,
      "믹": 6211,
      "민": 6212,
      "믿": 6213,
      "밀": 6214,
      "밋": 6215,
      "밍": 6216,
      "및": 6217,
      "밑": 6218,
      "바": 6219,
      "박": 6220,
      "밖": 6221,
      "반": 6222,
      "받": 6223,
      "발": 6224,
      "밝": 6225,
      "밤": 6226,
      "방": 6227,
      "밭": 6228,
      "배": 6229,
      "백": 6230,
      "밴": 6231,
      "밸": 6232,
      "뱀": 6233,
      "뱅": 6234,
      "버": 6235,
      "번": 6236,
      "벌": 6237,
      "범": 6238,
      "법": 6239,
      "벗": 6240,
      "베": 6241,
      "벡": 6242,
      "벤": 6243,
      "벨": 6244,
      "벳": 6245,
      "벼": 6246,
      "벽": 6247,
      "변": 6248,
      "별": 6249,
      "볍": 6250,
      "병": 6251,
      "보": 6252,
      "복": 6253,
      "본": 6254,
      "볼": 6255,
      "봄": 6256,
      "봉": 6257,
      "봐": 6258,
      "부": 6259,
      "북": 6260,
      "분": 6261,
      "불": 6262,
      "붐": 6263,
      "붕": 6264,
      "붙": 6265,
      "뷰": 6266,
      "뷴": 6267,
      "브": 6268,
      "븐": 6269,
      "블": 6270,
      "비": 6271,
      "빅": 6272,
      "빈": 6273,
      "빌": 6274,
      "빗": 6275,
      "빙": 6276,
      "빛": 6277,
      "빠": 6278,
      "빡": 6279,
      "빨": 6280,
      "빼": 6281,
      "뼈": 6282,
      "뽑": 6283,
      "뾰": 6284,
      "뿌": 6285,
      "뿐": 6286,
      "쁘": 6287,
      "쁜": 6288,
      "쁠": 6289,
      "삐": 6290,
      "사": 6291,
      "삭": 6292,
      "산": 6293,
      "살": 6294,
      "삶": 6295,
      "삼": 6296,
      "삽": 6297,
      "상": 6298,
      "새": 6299,
      "색": 6300,
      "샌": 6301,
      "샛": 6302,
      "생": 6303,
      "샤": 6304,
      "샬": 6305,
      "샵": 6306,
      "서": 6307,
      "석": 6308,
      "섞": 6309,
      "선": 6310,
      "설": 6311,
      "섬": 6312,
      "섭": 6313,
      "섯": 6314,
      "섰": 6315,
      "성": 6316,
      "세": 6317,
      "섹": 6318,
      "센": 6319,
      "셀": 6320,
      "셈": 6321,
      "셔": 6322,
      "션": 6323,
      "셨": 6324,
      "셰": 6325,
      "소": 6326,
      "속": 6327,
      "손": 6328,
      "솔": 6329,
      "솟": 6330,
      "송": 6331,
      "쇄": 6332,
      "쇠": 6333,
      "쇼": 6334,
      "수": 6335,
      "숙": 6336,
      "순": 6337,
      "술": 6338,
      "숨": 6339,
      "숫": 6340,
      "쉬": 6341,
      "쉽": 6342,
      "슈": 6343,
      "슐": 6344,
      "슘": 6345,
      "스": 6346,
      "슨": 6347,
      "슬": 6348,
      "슭": 6349,
      "슴": 6350,
      "습": 6351,
      "슷": 6352,
      "승": 6353,
      "시": 6354,
      "식": 6355,
      "신": 6356,
      "싣": 6357,
      "실": 6358,
      "심": 6359,
      "십": 6360,
      "싱": 6361,
      "싶": 6362,
      "싸": 6363,
      "싼": 6364,
      "쌀": 6365,
      "쌉": 6366,
      "쌍": 6367,
      "쌓": 6368,
      "써": 6369,
      "썰": 6370,
      "쏘": 6371,
      "쏟": 6372,
      "쓰": 6373,
      "쓸": 6374,
      "씨": 6375,
      "씩": 6376,
      "씬": 6377,
      "아": 6378,
      "악": 6379,
      "안": 6380,
      "앉": 6381,
      "않": 6382,
      "알": 6383,
      "암": 6384,
      "압": 6385,
      "앗": 6386,
      "았": 6387,
      "앙": 6388,
      "앞": 6389,
      "애": 6390,
      "액": 6391,
      "앤": 6392,
      "앨": 6393,
      "앱": 6394,
      "앵": 6395,
      "야": 6396,
      "약": 6397,
      "얀": 6398,
      "얄": 6399,
      "얇": 6400,
      "얏": 6401,
      "양": 6402,
      "얘": 6403,
      "어": 6404,
      "억": 6405,
      "언": 6406,
      "얻": 6407,
      "얼": 6408,
      "엄": 6409,
      "업": 6410,
      "없": 6411,
      "엇": 6412,
      "었": 6413,
      "에": 6414,
      "엑": 6415,
      "엔": 6416,
      "엘": 6417,
      "엠": 6418,
      "여": 6419,
      "역": 6420,
      "연": 6421,
      "열": 6422,
      "염": 6423,
      "엽": 6424,
      "였": 6425,
      "영": 6426,
      "옆": 6427,
      "예": 6428,
      "옛": 6429,
      "오": 6430,
      "옥": 6431,
      "온": 6432,
      "올": 6433,
      "옮": 6434,
      "옵": 6435,
      "옷": 6436,
      "옹": 6437,
      "와": 6438,
      "완": 6439,
      "왈": 6440,
      "왔": 6441,
      "왕": 6442,
      "왜": 6443,
      "외": 6444,
      "왼": 6445,
      "요": 6446,
      "욕": 6447,
      "용": 6448,
      "우": 6449,
      "욱": 6450,
      "운": 6451,
      "울": 6452,
      "움": 6453,
      "웃": 6454,
      "웅": 6455,
      "워": 6456,
      "원": 6457,
      "월": 6458,
      "웠": 6459,
      "웨": 6460,
      "웰": 6461,
      "웹": 6462,
      "위": 6463,
      "윈": 6464,
      "윌": 6465,
      "윙": 6466,
      "유": 6467,
      "육": 6468,
      "윤": 6469,
      "율": 6470,
      "융": 6471,
      "으": 6472,
      "은": 6473,
      "을": 6474,
      "음": 6475,
      "응": 6476,
      "의": 6477,
      "이": 6478,
      "익": 6479,
      "인": 6480,
      "일": 6481,
      "읽": 6482,
      "잃": 6483,
      "임": 6484,
      "입": 6485,
      "있": 6486,
      "잉": 6487,
      "잊": 6488,
      "잎": 6489,
      "자": 6490,
      "작": 6491,
      "잔": 6492,
      "잘": 6493,
      "잠": 6494,
      "잡": 6495,
      "장": 6496,
      "잦": 6497,
      "재": 6498,
      "쟁": 6499,
      "저": 6500,
      "적": 6501,
      "전": 6502,
      "절": 6503,
      "젊": 6504,
      "점": 6505,
      "접": 6506,
      "정": 6507,
      "젖": 6508,
      "제": 6509,
      "젝": 6510,
      "젠": 6511,
      "젤": 6512,
      "젯": 6513,
      "져": 6514,
      "젹": 6515,
      "젼": 6516,
      "졌": 6517,
      "조": 6518,
      "족": 6519,
      "존": 6520,
      "졸": 6521,
      "좀": 6522,
      "좁": 6523,
      "종": 6524,
      "좋": 6525,
      "좌": 6526,
      "죄": 6527,
      "죔": 6528,
      "죠": 6529,
      "주": 6530,
      "죽": 6531,
      "준": 6532,
      "줄": 6533,
      "줌": 6534,
      "줍": 6535,
      "중": 6536,
      "줬": 6537,
      "쥐": 6538,
      "즈": 6539,
      "즉": 6540,
      "즌": 6541,
      "즐": 6542,
      "증": 6543,
      "지": 6544,
      "직": 6545,
      "진": 6546,
      "질": 6547,
      "짐": 6548,
      "집": 6549,
      "짓": 6550,
      "징": 6551,
      "짜": 6552,
      "짝": 6553,
      "짧": 6554,
      "째": 6555,
      "쨍": 6556,
      "쩌": 6557,
      "쪽": 6558,
      "쫒": 6559,
      "쯤": 6560,
      "찍": 6561,
      "차": 6562,
      "착": 6563,
      "찬": 6564,
      "찮": 6565,
      "찰": 6566,
      "참": 6567,
      "창": 6568,
      "찾": 6569,
      "채": 6570,
      "책": 6571,
      "챔": 6572,
      "챙": 6573,
      "처": 6574,
      "척": 6575,
      "천": 6576,
      "철": 6577,
      "첨": 6578,
      "첩": 6579,
      "첫": 6580,
      "청": 6581,
      "체": 6582,
      "쳐": 6583,
      "쳤": 6584,
      "초": 6585,
      "촉": 6586,
      "총": 6587,
      "촬": 6588,
      "최": 6589,
      "추": 6590,
      "축": 6591,
      "춘": 6592,
      "출": 6593,
      "춥": 6594,
      "충": 6595,
      "춰": 6596,
      "췄": 6597,
      "취": 6598,
      "츠": 6599,
      "측": 6600,
      "층": 6601,
      "치": 6602,
      "칙": 6603,
      "친": 6604,
      "칠": 6605,
      "침": 6606,
      "칩": 6607,
      "칫": 6608,
      "칭": 6609,
      "카": 6610,
      "칸": 6611,
      "칼": 6612,
      "캄": 6613,
      "캐": 6614,
      "캔": 6615,
      "캘": 6616,
      "캠": 6617,
      "캡": 6618,
      "커": 6619,
      "컨": 6620,
      "컬": 6621,
      "컴": 6622,
      "케": 6623,
      "켄": 6624,
      "켓": 6625,
      "켜": 6626,
      "켰": 6627,
      "코": 6628,
      "콘": 6629,
      "콜": 6630,
      "콥": 6631,
      "콧": 6632,
      "콩": 6633,
      "콰": 6634,
      "쾰": 6635,
      "쿠": 6636,
      "쿡": 6637,
      "쿨": 6638,
      "쿼": 6639,
      "퀘": 6640,
      "큄": 6641,
      "크": 6642,
      "큰": 6643,
      "클": 6644,
      "큼": 6645,
      "키": 6646,
      "킨": 6647,
      "킬": 6648,
      "킵": 6649,
      "킹": 6650,
      "타": 6651,
      "탄": 6652,
      "탈": 6653,
      "탐": 6654,
      "탑": 6655,
      "탕": 6656,
      "태": 6657,
      "택": 6658,
      "탠": 6659,
      "탱": 6660,
      "터": 6661,
      "턴": 6662,
      "털": 6663,
      "텀": 6664,
      "테": 6665,
      "텍": 6666,
      "텐": 6667,
      "텔": 6668,
      "템": 6669,
      "텨": 6670,
      "토": 6671,
      "톤": 6672,
      "톨": 6673,
      "톰": 6674,
      "톱": 6675,
      "통": 6676,
      "퇴": 6677,
      "투": 6678,
      "툴": 6679,
      "툼": 6680,
      "튜": 6681,
      "트": 6682,
      "특": 6683,
      "튼": 6684,
      "틀": 6685,
      "틈": 6686,
      "티": 6687,
      "틱": 6688,
      "틴": 6689,
      "팀": 6690,
      "팅": 6691,
      "파": 6692,
      "판": 6693,
      "팔": 6694,
      "팟": 6695,
      "팡": 6696,
      "패": 6697,
      "팬": 6698,
      "팸": 6699,
      "팽": 6700,
      "퍼": 6701,
      "펀": 6702,
      "펌": 6703,
      "페": 6704,
      "펜": 6705,
      "펠": 6706,
      "펴": 6707,
      "편": 6708,
      "펼": 6709,
      "평": 6710,
      "폐": 6711,
      "포": 6712,
      "폭": 6713,
      "폰": 6714,
      "폴": 6715,
      "폼": 6716,
      "표": 6717,
      "푯": 6718,
      "푸": 6719,
      "푼": 6720,
      "풀": 6721,
      "품": 6722,
      "풍": 6723,
      "퓨": 6724,
      "프": 6725,
      "픈": 6726,
      "플": 6727,
      "피": 6728,
      "픽": 6729,
      "핀": 6730,
      "필": 6731,
      "핍": 6732,
      "핑": 6733,
      "하": 6734,
      "학": 6735,
      "한": 6736,
      "할": 6737,
      "함": 6738,
      "합": 6739,
      "항": 6740,
      "해": 6741,
      "핵": 6742,
      "햄": 6743,
      "햇": 6744,
      "했": 6745,
      "행": 6746,
      "향": 6747,
      "허": 6748,
      "헌": 6749,
      "험": 6750,
      "헝": 6751,
      "헤": 6752,
      "헥": 6753,
      "헬": 6754,
      "혀": 6755,
      "혁": 6756,
      "현": 6757,
      "혈": 6758,
      "혐": 6759,
      "협": 6760,
      "혓": 6761,
      "혔": 6762,
      "형": 6763,
      "혜": 6764,
      "호": 6765,
      "혹": 6766,
      "혼": 6767,
      "홀": 6768,
      "홍": 6769,
      "화": 6770,
      "확": 6771,
      "환": 6772,
      "활": 6773,
      "황": 6774,
      "회": 6775,
      "획": 6776,
      "횡": 6777,
      "효": 6778,
      "후": 6779,
      "훈": 6780,
      "훌": 6781,
      "훔": 6782,
      "훗": 6783,
      "훨": 6784,
      "훼": 6785,
      "휘": 6786,
      "휠": 6787,
      "휴": 6788,
      "흐": 6789,
      "흑": 6790,
      "흔": 6791,
      "흗": 6792,
      "흡": 6793,
      "흥": 6794,
      "흩": 6795,
      "희": 6796,
      "히": 6797,
      "힌": 6798,
      "힐": 6799,
      "힘": 6800,
      "﴾": 6801,
      "﴿": 6802,
      "︰": 6803,
      "﹑": 6804,
      "！": 6805,
      "％": 6806,
      "（": 6807,
      "）": 6808,
      "，": 6809,
      "－": 6810,
      "．": 6811,
      "／": 6812,
      "：": 6813,
      "；": 6814,
      "？": 6815,
      "～": 6816,
      "an": 6817,
      "in": 6818,
      "en": 6819,
      "ar": 6820,
      "er": 6821,
      "al": 6822,
      "at": 6823,
      "on": 6824,
      "ka": 6825,
      "la": 6826,
      "is": 6827,
      "ma": 6828,
      "ku": 6829,
      "na": 6830,
      "ta": 6831,
      "le": 6832,
      "ti": 6833,
      "di": 6834,
      "de": 6835,
      "te": 6836,
      "or": 6837,
      "un": 6838,
      "ya": 6839,
      "ga": 6840,
      "da": 6841,
      "ال": 6842,
      "wa": 6843,
      "sa": 6844,
      "ch": 6845,
      "es": 6846,
      "ra": 6847,
      "li": 6848,
      "ba": 6849,
      "si": 6850,
      "ha": 6851,
      "ri": 6852,
      "se": 6853,
      "ko": 6854,
      "ang": 6855,
      "re": 6856,
      "tu": 6857,
      "pa": 6858,
      "ki": 6859,
      "lo": 6860,
      "mi": 6861,
      "bi": 6862,
      "to": 6863,
      "ke": 6864,
      "ni": 6865,
      "mu": 6866,
      "me": 6867,
      "ro": 6868,
      "hi": 6869,
      "ان": 6870,
      "et": 6871,
      "ci": 6872,
      "go": 6873,
      "do": 6874,
      "ana": 6875,
      "el": 6876,
      "po": 6877,
      "ing": 6878,
      "so": 6879,
      "mo": 6880,
      "du": 6881,
      "ne": 6882,
      "bu": 6883,
      "lu": 6884,
      "ng": 6885,
      "as": 6886,
      "am": 6887,
      "be": 6888,
      "th": 6889,
      "ara": 6890,
      "vi": 6891,
      "su": 6892,
      "bo": 6893,
      "no": 6894,
      "ala": 6895,
      "pi": 6896,
      "zi": 6897,
      "we": 6898,
      "ye": 6899,
      "pe": 6900,
      "st": 6901,
      "ار": 6902,
      "va": 6903,
      "ho": 6904,
      "gi": 6905,
      "ru": 6906,
      "gu": 6907,
      "ан": 6908,
      "je": 6909,
      "ja": 6910,
      "za": 6911,
      "yo": 6912,
      "ар": 6913,
      "man": 6914,
      "he": 6915,
      "ali": 6916,
      "00": 6917,
      "ge": 6918,
      "kan": 6919,
      "fi": 6920,
      "ve": 6921,
      "men": 6922,
      "yi": 6923,
      "ur": 6924,
      "ji": 6925,
      "ca": 6926,
      "co": 6927,
      "ata": 6928,
      "ات": 6929,
      "ina": 6930,
      "lan": 6931,
      "ati": 6932,
      "на": 6933,
      "qu": 6934,
      "hu": 6935,
      "ai": 6936,
      "ari": 6937,
      "ون": 6938,
      "wo": 6939,
      "pu": 6940,
      "ter": 6941,
      "wi": 6942,
      "ol": 6943,
      "ور": 6944,
      "tan": 6945,
      "ak": 6946,
      "्र": 6947,
      "ong": 6948,
      "्य": 6949,
      "င်": 6950,
      "के": 6951,
      "ny": 6952,
      "ad": 6953,
      "nga": 6954,
      "ст": 6955,
      "um": 6956,
      "han": 6957,
      "ал": 6958,
      "it": 6959,
      "من": 6960,
      "ول": 6961,
      "ен": 6962,
      "fa": 6963,
      "ir": 6964,
      "den": 6965,
      "ين": 6966,
      "ere": 6967,
      "ani": 6968,
      "os": 6969,
      "اس": 6970,
      "да": 6971,
      "il": 6972,
      "per": 6973,
      "ran": 6974,
      "ts": 6975,
      "ini": 6976,
      "ze": 6977,
      "us": 6978,
      "ра": 6979,
      "का": 6980,
      "ce": 6981,
      "ten": 6982,
      "mp": 6983,
      "र्": 6984,
      "ام": 6985,
      "ver": 6986,
      "wan": 6987,
      "vo": 6988,
      "ban": 6989,
      "та": 6990,
      "ер": 6991,
      "ၼ်": 6992,
      "der": 6993,
      "eng": 6994,
      "اد": 6995,
      "om": 6996,
      "em": 6997,
      "الم": 6998,
      "isi": 6999,
      "nu": 7000,
      "dan": 7001,
      "то": 7002,
      "cu": 7003,
      "ای": 7004,
      "chi": 7005,
      "ية": 7006,
      "pro": 7007,
      "ко": 7008,
      "ale": 7009,
      "mb": 7010,
      "स्": 7011,
      "ay": 7012,
      "min": 7013,
      "ju": 7014,
      "par": 7015,
      "وا": 7016,
      "ान": 7017,
      "ut": 7018,
      "for": 7019,
      "في": 7020,
      "ung": 7021,
      "ona": 7022,
      "san": 7023,
      "لى": 7024,
      "ek": 7025,
      "lar": 7026,
      "19": 7027,
      "isa": 7028,
      "mar": 7029,
      "ent": 7030,
      "ол": 7031,
      "og": 7032,
      "mat": 7033,
      "ori": 7034,
      "era": 7035,
      "che": 7036,
      "fo": 7037,
      "ни": 7038,
      "pr": 7039,
      "pan": 7040,
      "ва": 7041,
      "ik": 7042,
      "با": 7043,
      "vu": 7044,
      "те": 7045,
      "fu": 7046,
      "ما": 7047,
      "kon": 7048,
      "ag": 7049,
      "van": 7050,
      "را": 7051,
      "zo": 7052,
      "con": 7053,
      "ို": 7054,
      "ка": 7055,
      "دي": 7056,
      "لي": 7057,
      "ري": 7058,
      "im": 7059,
      "eri": 7060,
      "que": 7061,
      "ти": 7062,
      "alo": 7063,
      "ро": 7064,
      "لا": 7065,
      "но": 7066,
      "်း": 7067,
      "tr": 7068,
      "कर": 7069,
      "kwa": 7070,
      "ed": 7071,
      "sh": 7072,
      "वा": 7073,
      "ला": 7074,
      "yn": 7075,
      "ند": 7076,
      "jo": 7077,
      "ын": 7078,
      "atu": 7079,
      "ها": 7080,
      "ति": 7081,
      "tar": 7082,
      "gan": 7083,
      "رو": 7084,
      "wen": 7085,
      "sta": 7086,
      "ре": 7087,
      "ма": 7088,
      "ⴰⵏ": 7089,
      "wu": 7090,
      "по": 7091,
      "id": 7092,
      "मे": 7093,
      "मा": 7094,
      "ll": 7095,
      "سا": 7096,
      "ले": 7097,
      "не": 7098,
      "les": 7099,
      "ри": 7100,
      "yu": 7101,
      "ist": 7102,
      "nan": 7103,
      "ки": 7104,
      "ست": 7105,
      "ber": 7106,
      "mba": 7107,
      "fe": 7108,
      "kar": 7109,
      "qa": 7110,
      "ena": 7111,
      "au": 7112,
      "ین": 7113,
      "ene": 7114,
      "ու": 7115,
      "por": 7116,
      "20": 7117,
      "ла": 7118,
      "kɛ": 7119,
      "yan": 7120,
      "या": 7121,
      "tra": 7122,
      "ли": 7123,
      "تو": 7124,
      "ate": 7125,
      "से": 7126,
      "ine": 7127,
      "او": 7128,
      "oni": 7129,
      "بي": 7130,
      "zu": 7131,
      "ба": 7132,
      "nd": 7133,
      "mas": 7134,
      "cha": 7135,
      "за": 7136,
      "son": 7137,
      "ना": 7138,
      "are": 7139,
      "ap": 7140,
      "دا": 7141,
      "long": 7142,
      "ato": 7143,
      "ле": 7144,
      "gen": 7145,
      "وم": 7146,
      "and": 7147,
      "200": 7148,
      "wɔ": 7149,
      "ken": 7150,
      "বা": 7151,
      "بر": 7152,
      "प्र": 7153,
      "تا": 7154,
      "ता": 7155,
      "क्": 7156,
      "कि": 7157,
      "تر": 7158,
      ").": 7159,
      "ah": 7160,
      "len": 7161,
      "yon": 7162,
      "od": 7163,
      "се": 7164,
      "он": 7165,
      "در": 7166,
      "mun": 7167,
      "ди": 7168,
      "shi": 7169,
      "est": 7170,
      "ore": 7171,
      "्या": 7172,
      "har": 7173,
      "يا": 7174,
      "In": 7175,
      "sen": 7176,
      "ei": 7177,
      "tin": 7178,
      "ia": 7179,
      "वि": 7180,
      "га": 7181,
      "င်း": 7182,
      "до": 7183,
      "kin": 7184,
      "во": 7185,
      "dia": 7186,
      "kun": 7187,
      "सा": 7188,
      "்க": 7189,
      "ير": 7190,
      "الأ": 7191,
      "tur": 7192,
      "las": 7193,
      "mga": 7194,
      "ան": 7195,
      "iz": 7196,
      "नि": 7197,
      "kal": 7198,
      "بو": 7199,
      "by": 7200,
      "می": 7201,
      "mai": 7202,
      "op": 7203,
      "го": 7204,
      "Ma": 7205,
      "xi": 7206,
      "ви": 7207,
      "pri": 7208,
      "को": 7209,
      "del": 7210,
      "में": 7211,
      "де": 7212,
      "mal": 7213,
      "ме": 7214,
      "ok": 7215,
      "ser": 7216,
      "ဝ်": 7217,
      "nt": 7218,
      "ora": 7219,
      "না": 7220,
      "bar": 7221,
      "hin": 7222,
      "sin": 7223,
      "av": 7224,
      "ly": 7225,
      "کی": 7226,
      "мо": 7227,
      "रा": 7228,
      "ул": 7229,
      "dis": 7230,
      "ის": 7231,
      "kat": 7232,
      "din": 7233,
      "esi": 7234,
      "of": 7235,
      "pre": 7236,
      "ებ": 7237,
      "chu": 7238,
      "ми": 7239,
      "हो": 7240,
      "10": 7241,
      "са": 7242,
      "one": 7243,
      "lin": 7244,
      "ys": 7245,
      "des": 7246,
      "ben": 7247,
      "ama": 7248,
      "tal": 7249,
      "न्": 7250,
      "uku": 7251,
      "ın": 7252,
      "ven": 7253,
      "mer": 7254,
      "سي": 7255,
      "ɔn": 7256,
      "ער": 7257,
      "نا": 7258,
      "جي": 7259,
      "ab": 7260,
      "të": 7261,
      "una": 7262,
      "ക്": 7263,
      "uni": 7264,
      "gra": 7265,
      "្រ": 7266,
      "ား": 7267,
      "الت": 7268,
      "पर": 7269,
      "the": 7270,
      "kh": 7271,
      "ने": 7272,
      "ot": 7273,
      "ന്": 7274,
      "af": 7275,
      "gy": 7276,
      "gh": 7277,
      "die": 7278,
      "var": 7279,
      "000": 7280,
      "war": 7281,
      "ul": 7282,
      "ck": 7283,
      "oro": 7284,
      "जा": 7285,
      "جو": 7286,
      "اي": 7287,
      "على": 7288,
      "res": 7289,
      "pen": 7290,
      "हि": 7291,
      "mis": 7292,
      "yɛ": 7293,
      "kw": 7294,
      "مو": 7295,
      "ری": 7296,
      "land": 7297,
      "mpi": 7298,
      "لو": 7299,
      "יי": 7300,
      "sti": 7301,
      "ph": 7302,
      "би": 7303,
      "ou": 7304,
      "ob": 7305,
      "ন্": 7306,
      "iti": 7307,
      "ོད": 7308,
      "yang": 7309,
      "եր": 7310,
      "हा": 7311,
      "به": 7312,
      "बा": 7313,
      "yen": 7314,
      "bal": 7315,
      "til": 7316,
      "න්": 7317,
      "أن": 7318,
      "ော": 7319,
      "ⴰⵔ": 7320,
      "ler": 7321,
      "tas": 7322,
      "Se": 7323,
      "oku": 7324,
      "pas": 7325,
      "bat": 7326,
      "ty": 7327,
      "16": 7328,
      "can": 7329,
      "تي": 7330,
      "ele": 7331,
      "ⵉⵏ": 7332,
      "ren": 7333,
      "Na": 7334,
      "gar": 7335,
      "dh": 7336,
      "lis": 7337,
      "ны": 7338,
      "ɛn": 7339,
      "ua": 7340,
      "וו": 7341,
      "mag": 7342,
      "tt": 7343,
      "па": 7344,
      "ac": 7345,
      "thi": 7346,
      "uk": 7347,
      "ste": 7348,
      "ту": 7349,
      "འི": 7350,
      "ie": 7351,
      "sha": 7352,
      "مع": 7353,
      "रू": 7354,
      "aw": 7355,
      "است": 7356,
      "دی": 7357,
      "وي": 7358,
      "tor": 7359,
      "pag": 7360,
      "ᱟᱹ": 7361,
      "ྱི": 7362,
      "ம்": 7363,
      "كن": 7364,
      "त्": 7365,
      "هي": 7366,
      "ды": 7367,
      "ning": 7368,
      "sk": 7369,
      "thu": 7370,
      "dal": 7371,
      "lɛ": 7372,
      "فر": 7373,
      "pat": 7374,
      "tro": 7375,
      "ise": 7376,
      "بع": 7377,
      "mbu": 7378,
      "்த": 7379,
      "ты": 7380,
      "bir": 7381,
      "री": 7382,
      "бо": 7383,
      "ig": 7384,
      "لی": 7385,
      "रि": 7386,
      "tse": 7387,
      "لە": 7388,
      "dar": 7389,
      "ве": 7390,
      "ero": 7391,
      "lang": 7392,
      "بال": 7393,
      "دو": 7394,
      "ար": 7395,
      "nɛ": 7396,
      "کر": 7397,
      "wy": 7398,
      "یا": 7399,
      "ingi": 7400,
      "है": 7401,
      "ón": 7402,
      "\"\"": 7403,
      "tha": 7404,
      "ada": 7405,
      "yɔ": 7406,
      "tes": 7407,
      "mbi": 7408,
      "ိူ": 7409,
      "és": 7410,
      "Al": 7411,
      "sar": 7412,
      "Re": 7413,
      "ton": 7414,
      "གས": 7415,
      "dzi": 7416,
      "tel": 7417,
      "हे": 7418,
      "nh": 7419,
      "hat": 7420,
      "ano": 7421,
      "rin": 7422,
      "ру": 7423,
      "ish": 7424,
      "သည": 7425,
      "gb": 7426,
      "ní": 7427,
      "La": 7428,
      "pela": 7429,
      "ক্": 7430,
      "Ro": 7431,
      "ци": 7432,
      "də": 7433,
      "jan": 7434,
      "ⵜⴰ": 7435,
      "το": 7436,
      "هم": 7437,
      "وال": 7438,
      "mbo": 7439,
      "दे": 7440,
      "mon": 7441,
      "kor": 7442,
      "كان": 7443,
      "لل": 7444,
      "nya": 7445,
      "ло": 7446,
      "ത്": 7447,
      "all": 7448,
      "aro": 7449,
      "ese": 7450,
      "ation": 7451,
      "los": 7452,
      "tre": 7453,
      "بل": 7454,
      "tsa": 7455,
      "14": 7456,
      "ɖe": 7457,
      "की": 7458,
      "бол": 7459,
      "და": 7460,
      "си": 7461,
      "ាន": 7462,
      "تم": 7463,
      "mbe": 7464,
      "tele": 7465,
      "kɔ": 7466,
      "نى": 7467,
      "sy": 7468,
      "und": 7469,
      "ིན": 7470,
      "ndi": 7471,
      "सं": 7472,
      "kana": 7473,
      "ex": 7474,
      "က်": 7475,
      "со": 7476,
      "ⴰⴷ": 7477,
      "त्र": 7478,
      "dy": 7479,
      "para": 7480,
      "ks": 7481,
      "از": 7482,
      "نْ": 7483,
      "ach": 7484,
      "लि": 7485,
      "ده": 7486,
      "ⴰⵍ": 7487,
      "18": 7488,
      "או": 7489,
      "ᱨᱮ": 7490,
      "inter": 7491,
      "nen": 7492,
      "ble": 7493,
      "dat": 7494,
      "אר": 7495,
      "val": 7496,
      "ার": 7497,
      "ку": 7498,
      "zin": 7499,
      "্র": 7500,
      "kas": 7501,
      "ris": 7502,
      "fin": 7503,
      "San": 7504,
      "15": 7505,
      "मि": 7506,
      "mil": 7507,
      "سی": 7508,
      "дар": 7509,
      "هن": 7510,
      "ry": 7511,
      "tun": 7512,
      "net": 7513,
      "ွင်": 7514,
      "az": 7515,
      "wat": 7516,
      "kä": 7517,
      "lik": 7518,
      "ud": 7519,
      "ல்": 7520,
      "די": 7521,
      "एक": 7522,
      "tš": 7523,
      "ते": 7524,
      "पा": 7525,
      "som": 7526,
      "bil": 7527,
      "ⴰⵙ": 7528,
      "лә": 7529,
      "vin": 7530,
      "cia": 7531,
      "eg": 7532,
      "ky": 7533,
      "ານ": 7534,
      "fer": 7535,
      "xa": 7536,
      "\".": 7537,
      "fan": 7538,
      "གི": 7539,
      "ono": 7540,
      "ке": 7541,
      "မ်": 7542,
      "مان": 7543,
      "jen": 7544,
      "het": 7545,
      "ên": 7546,
      "má": 7547,
      "taa": 7548,
      "ही": 7549,
      "مر": 7550,
      "ин": 7551,
      "یر": 7552,
      "ін": 7553,
      "ன்": 7554,
      "nang": 7555,
      "zy": 7556,
      "ket": 7557,
      "ew": 7558,
      "ча": 7559,
      "אי": 7560,
      "uro": 7561,
      "ыл": 7562,
      "सम": 7563,
      "),": 7564,
      "asa": 7565,
      "wal": 7566,
      "ör": 7567,
      "vis": 7568,
      "ira": 7569,
      "ги": 7570,
      "tat": 7571,
      "pang": 7572,
      "lam": 7573,
      "ᱟᱜ": 7574,
      "бу": 7575,
      "चा": 7576,
      "ائ": 7577,
      "ەر": 7578,
      "kul": 7579,
      "су": 7580,
      "গী": 7581,
      "kuti": 7582,
      "هو": 7583,
      "নি": 7584,
      "anga": 7585,
      "usa": 7586,
      "্য": 7587,
      "ment": 7588,
      "mm": 7589,
      "نی": 7590,
      "ring": 7591,
      "ہٕ": 7592,
      "pin": 7593,
      "كل": 7594,
      "Jo": 7595,
      "dos": 7596,
      ".\"": 7597,
      "aka": 7598,
      "लो": 7599,
      "kp": 7600,
      "ane": 7601,
      "့်": 7602,
      "24": 7603,
      "ef": 7604,
      "kala": 7605,
      "aba": 7606,
      "én": 7607,
      "zen": 7608,
      "бе": 7609,
      "مل": 7610,
      "ക്ക": 7611,
      "11": 7612,
      "dd": 7613,
      "ili": 7614,
      "क्ष": 7615,
      "ат": 7616,
      "iri": 7617,
      "ани": 7618,
      "သည်": 7619,
      "yin": 7620,
      "ug": 7621,
      "འད": 7622,
      "от": 7623,
      "sɛ": 7624,
      "ор": 7625,
      "ته": 7626,
      "ib": 7627,
      "An": 7628,
      "olo": 7629,
      "det": 7630,
      "rĩ": 7631,
      "rat": 7632,
      "نو": 7633,
      "mana": 7634,
      "pun": 7635,
      "ني": 7636,
      "الع": 7637,
      "mili": 7638,
      "cho": 7639,
      "hen": 7640,
      "är": 7641,
      "وق": 7642,
      "од": 7643,
      "uta": 7644,
      "gin": 7645,
      "တ်": 7646,
      "ும்": 7647,
      "ski": 7648,
      "sia": 7649,
      "મા": 7650,
      "ngo": 7651,
      "ila": 7652,
      "مي": 7653,
      "τη": 7654,
      "mak": 7655,
      "hun": 7656,
      "تح": 7657,
      "تی": 7658,
      "dir": 7659,
      "ара": 7660,
      "वे": 7661,
      "ରେ": 7662,
      "car": 7663,
      "كي": 7664,
      "sam": 7665,
      "air": 7666,
      "ות": 7667,
      "नी": 7668,
      "க்க": 7669,
      "ली": 7670,
      "maka": 7671,
      "km": 7672,
      "gaw": 7673,
      "τα": 7674,
      "بار": 7675,
      "bli": 7676,
      "wɛ": 7677,
      "ིག": 7678,
      "pra": 7679,
      "kuna": 7680,
      "ün": 7681,
      "iya": 7682,
      "mang": 7683,
      "tos": 7684,
      "alu": 7685,
      "ನ್": 7686,
      "ᱟᱱ": 7687,
      "oo": 7688,
      "anu": 7689,
      "كو": 7690,
      "کە": 7691,
      "tak": 7692,
      "17": 7693,
      "ᱟᱨ": 7694,
      "کو": 7695,
      "mwe": 7696,
      "че": 7697,
      "كا": 7698,
      "்ட": 7699,
      "ತ್": 7700,
      "leg": 7701,
      "དང": 7702,
      "ཡོད": 7703,
      "স্": 7704,
      "Ar": 7705,
      "met": 7706,
      "éi": 7707,
      "may": 7708,
      "мен": 7709,
      "mɛ": 7710,
      "تق": 7711,
      "גע": 7712,
      "ती": 7713,
      "որ": 7714,
      "تى": 7715,
      "aman": 7716,
      "اللي": 7717,
      "dr": 7718,
      "ակ": 7719,
      "দা": 7720,
      "أو": 7721,
      "fun": 7722,
      "यो": 7723,
      "ic": 7724,
      "არ": 7725,
      "िक": 7726,
      "das": 7727,
      "pal": 7728,
      "lai": 7729,
      "ან": 7730,
      "kaw": 7731,
      "रे": 7732,
      "ंग": 7733,
      "mit": 7734,
      "الي": 7735,
      "دە": 7736,
      "মা": 7737,
      "ၼ်ႉ": 7738,
      "ër": 7739,
      "ים": 7740,
      "Ku": 7741,
      "nis": 7742,
      "ని": 7743,
      "မျ": 7744,
      "30": 7745,
      "Uni": 7746,
      "bin": 7747,
      "ের": 7748,
      "vy": 7749,
      "قا": 7750,
      "Ko": 7751,
      "cy": 7752,
      "cin": 7753,
      "Bo": 7754,
      "شر": 7755,
      "ၼ်း": 7756,
      "گر": 7757,
      "که": 7758,
      "سو": 7759,
      "ਾਂ": 7760,
      "tir": 7761,
      "تن": 7762,
      "lat": 7763,
      "ай": 7764,
      "ப்": 7765,
      "تل": 7766,
      "दा": 7767,
      "eli": 7768,
      "Ang": 7769,
      "lé": 7770,
      "जे": 7771,
      "ന്ന": 7772,
      "ლი": 7773,
      "tri": 7774,
      "тар": 7775,
      "ita": 7776,
      "aj": 7777,
      "té": 7778,
      "ду": 7779,
      "nag": 7780,
      "ein": 7781,
      "în": 7782,
      "asi": 7783,
      "bang": 7784,
      "हु": 7785,
      "100": 7786,
      "ี่": 7787,
      "xe": 7788,
      "စ်": 7789,
      "الح": 7790,
      "eni": 7791,
      "ম্": 7792,
      "kati": 7793,
      "այ": 7794,
      "دة": 7795,
      "yar": 7796,
      "द्": 7797,
      "Mu": 7798,
      "sun": 7799,
      "зи": 7800,
      "མི": 7801,
      "tem": 7802,
      "gus": 7803,
      "lah": 7804,
      "på": 7805,
      "Le": 7806,
      "ου": 7807,
      "don": 7808,
      "sis": 7809,
      "kwen": 7810,
      "ән": 7811,
      "чи": 7812,
      "सि": 7813,
      "pp": 7814,
      "दि": 7815,
      "Si": 7816,
      "سن": 7817,
      "وان": 7818,
      "sem": 7819,
      "ant": 7820,
      "كون": 7821,
      "াৰ": 7822,
      "bak": 7823,
      "tɔ": 7824,
      "bili": 7825,
      "win": 7826,
      "Af": 7827,
      "تع": 7828,
      "سر": 7829,
      "cel": 7830,
      "ger": 7831,
      "nie": 7832,
      "str": 7833,
      "tik": 7834,
      "mes": 7835,
      "në": 7836,
      "lə": 7837,
      "wer": 7838,
      "ီး": 7839,
      "про": 7840,
      "tang": 7841,
      "ին": 7842,
      "ⴷⴰ": 7843,
      "ses": 7844,
      "ක්": 7845,
      "कार": 7846,
      "្ន": 7847,
      "Am": 7848,
      "uka": 7849,
      "ся": 7850,
      "је": 7851,
      "তি": 7852,
      "শি": 7853,
      "hang": 7854,
      "кі": 7855,
      "اور": 7856,
      "ann": 7857,
      "De": 7858,
      "Bu": 7859,
      "ire": 7860,
      "йн": 7861,
      "bes": 7862,
      "هر": 7863,
      "بە": 7864,
      "rit": 7865,
      "awa": 7866,
      "lla": 7867,
      "wana": 7868,
      "وە": 7869,
      "ள்": 7870,
      "ារ": 7871,
      "များ": 7872,
      "yaa": 7873,
      "tuk": 7874,
      "ಲ್": 7875,
      "eta": 7876,
      "sp": 7877,
      "να": 7878,
      "دى": 7879,
      "dra": 7880,
      "ры": 7881,
      "الق": 7882,
      "med": 7883,
      "ган": 7884,
      "ᱠᱚ": 7885,
      "же": 7886,
      "ལུ": 7887,
      "ша": 7888,
      "ub": 7889,
      "ting": 7890,
      "ени": 7891,
      "स्थ": 7892,
      "لم": 7893,
      "ker": 7894,
      "sto": 7895,
      "ⴰⵎ": 7896,
      "hal": 7897,
      "ld": 7898,
      "wn": 7899,
      "ҳо": 7900,
      "ongo": 7901,
      "kai": 7902,
      "الن": 7903,
      "cen": 7904,
      "ທີ": 7905,
      "aku": 7906,
      "dha": 7907,
      "ль": 7908,
      "ге": 7909,
      "khu": 7910,
      "κα": 7911,
      "ल्": 7912,
      "му": 7913,
      "kt": 7914,
      "ེད": 7915,
      "าร": 7916,
      "सी": 7917,
      "गो": 7918,
      "ାର": 7919,
      "com": 7920,
      "So": 7921,
      "kwe": 7922,
      "پی": 7923,
      "Sa": 7924,
      "کن": 7925,
      "য়": 7926,
      "ନ୍": 7927,
      "ⵜⵉ": 7928,
      "dǝ": 7929,
      "sé": 7930,
      "kom": 7931,
      "bɛ": 7932,
      "fy": 7933,
      "انی": 7934,
      "ngu": 7935,
      "ээ": 7936,
      "ဢၼ်": 7937,
      "une": 7938,
      "lle": 7939,
      "ັນ": 7940,
      "өн": 7941,
      "اص": 7942,
      "inga": 7943,
      "än": 7944,
      "სა": 7945,
      "sie": 7946,
      "ում": 7947,
      "lá": 7948,
      "ƒe": 7949,
      "Di": 7950,
      "iso": 7951,
      "तर": 7952,
      "ອງ": 7953,
      "న్": 7954,
      "kam": 7955,
      "kũ": 7956,
      "tí": 7957,
      "indi": 7958,
      "ile": 7959,
      "छि": 7960,
      "్ర": 7961,
      "ที่": 7962,
      "વા": 7963,
      "୍ର": 7964,
      "etro": 7965,
      "wala": 7966,
      "och": 7967,
      "भा": 7968,
      "په": 7969,
      "န်": 7970,
      "িল": 7971,
      "kha": 7972,
      "tsi": 7973,
      "пре": 7974,
      "ிய": 7975,
      "ענ": 7976,
      "itu": 7977,
      "ⵓⵔ": 7978,
      "شي": 7979,
      "ces": 7980,
      "sz": 7981,
      "रो": 7982,
      "cion": 7983,
      "سب": 7984,
      "འདི": 7985,
      "hla": 7986,
      "kya": 7987,
      "زی": 7988,
      "मन": 7989,
      "തി": 7990,
      "പ്": 7991,
      "म्": 7992,
      "য়া": 7993,
      "ပ်": 7994,
      "து": 7995,
      "Fran": 7996,
      "lig": 7997,
      "vol": 7998,
      "سم": 7999,
      "Is": 8000,
      "aga": 8001,
      "དེ": 8002,
      "sion": 8003,
      "bet": 8004,
      "vel": 8005,
      "uma": 8006,
      "मी": 8007,
      "Ch": 8008,
      "io": 8009,
      "لار": 8010,
      "ും": 8011,
      "ⵓⵙ": 8012,
      "a̱": 8013,
      "ska": 8014,
      "ၵ်": 8015,
      "tho": 8016,
      "मु": 8017,
      "اري": 8018,
      "אנ": 8019,
      "vaka": 8020,
      "তা": 8021,
      "الج": 8022,
      "ಗಳ": 8023,
      "ర్": 8024,
      "gun": 8025,
      "بی": 8026,
      "stu": 8027,
      "اف": 8028,
      "anda": 8029,
      "kur": 8030,
      "nes": 8031,
      "่า": 8032,
      "نن": 8033,
      "Par": 8034,
      "nin": 8035,
      "তে": 8036,
      "্ৰ": 8037,
      "Nor": 8038,
      "قى": 8039,
      "ана": 8040,
      "gr": 8041,
      "ၼၼ်ႉ": 8042,
      "ತ್ತ": 8043,
      "ທີ່": 8044,
      "cer": 8045,
      "dz": 8046,
      "ိုင်": 8047,
      "ོན": 8048,
      "ria": 8049,
      "সি": 8050,
      "อง": 8051,
      "ала": 8052,
      "pana": 8053,
      "лі": 8054,
      "bis": 8055,
      "wọ": 8056,
      "бар": 8057,
      "دن": 8058,
      "ná": 8059,
      "ོང": 8060,
      "རྒ": 8061,
      "ित": 8062,
      "جا": 8063,
      "ரு": 8064,
      "స్": 8065,
      "edi": 8066,
      "bel": 8067,
      "sat": 8068,
      "kod": 8069,
      "tl": 8070,
      "из": 8071,
      "ել": 8072,
      "ਦੇ": 8073,
      "த்த": 8074,
      "анд": 8075,
      "ත්": 8076,
      "vat": 8077,
      "ිය": 8078,
      "ff": 8079,
      "পা": 8080,
      "ବା": 8081,
      "bre": 8082,
      "cam": 8083,
      "ներ": 8084,
      "کے": 8085,
      "কে": 8086,
      "ть": 8087,
      "اول": 8088,
      "бай": 8089,
      "lus": 8090,
      "ʋʋ": 8091,
      "ца": 8092,
      "लग": 8093,
      "сы": 8094,
      "كى": 8095,
      "ِي": 8096,
      "nor": 8097,
      "cis": 8098,
      "umu": 8099,
      "ngā": 8100,
      "မ်း": 8101,
      "cal": 8102,
      "gha": 8103,
      "র্": 8104,
      "ⴰⵜ": 8105,
      "гу": 8106,
      "199": 8107,
      "Gran": 8108,
      "sara": 8109,
      "дә": 8110,
      "dhe": 8111,
      "kuru": 8112,
      "fr": 8113,
      "ну": 8114,
      "bilong": 8115,
      "kĩ": 8116,
      "pha": 8117,
      "sal": 8118,
      "To": 8119,
      "तु": 8120,
      "ista": 8121,
      "رى": 8122,
      "ப்ப": 8123,
      "tali": 8124,
      "ја": 8125,
      "ને": 8126,
      "far": 8127,
      "ष्": 8128,
      "ста": 8129,
      "ente": 8130,
      "ır": 8131,
      "بول": 8132,
      "ther": 8133,
      "сти": 8134,
      "50": 8135,
      "ပြ": 8136,
      "pon": 8137,
      "अउ": 8138,
      "gara": 8139,
      "ⵉⵙ": 8140,
      "тер": 8141,
      "let": 8142,
      "بت": 8143,
      "kua": 8144,
      "Au": 8145,
      "өр": 8146,
      "مم": 8147,
      "ino": 8148,
      "gat": 8149,
      "टा": 8150,
      "mente": 8151,
      "idi": 8152,
      "وت": 8153,
      "বি": 8154,
      "gal": 8155,
      "жа": 8156,
      "uu": 8157,
      "الس": 8158,
      "ши": 8159,
      "Ka": 8160,
      "دان": 8161,
      "сто": 8162,
      "פו": 8163,
      "ड़": 8164,
      "কৰ": 8165,
      "რო": 8166,
      "40": 8167,
      "tà": 8168,
      "سان": 8169,
      "hon": 8170,
      "ئە": 8171,
      "မှ": 8172,
      "ικ": 8173,
      "ше": 8174,
      "ਵਿ": 8175,
      "്ട": 8176,
      "if": 8177,
      "lon": 8178,
      "nj": 8179,
      "ια": 8180,
      "үү": 8181,
      "nɔ": 8182,
      "્ય": 8183,
      "ɖo": 8184,
      "tam": 8185,
      "ön": 8186,
      "ནི": 8187,
      "ཚུ": 8188,
      "cz": 8189,
      "her": 8190,
      "sing": 8191,
      "nhi": 8192,
      "dai": 8193,
      "ham": 8194,
      "аны": 8195,
      "при": 8196,
      "ee": 8197,
      "पे": 8198,
      "án": 8199,
      "sig": 8200,
      "རྒྱ": 8201,
      "aye": 8202,
      "ete": 8203,
      "qi": 8204,
      "ट्र": 8205,
      "བྱ": 8206,
      "ಾಗ": 8207,
      "kata": 8208,
      "kus": 8209,
      "مال": 8210,
      "að": 8211,
      "hn": 8212,
      "temp": 8213,
      "angan": 8214,
      "kuma": 8215,
      "دم": 8216,
      "jn": 8217,
      "yr": 8218,
      "ля": 8219,
      "אל": 8220,
      "ɔ̱": 8221,
      "قة": 8222,
      "pɩ": 8223,
      "ні": 8224,
      "ᱚᱱ": 8225,
      "ના": 8226,
      "isti": 8227,
      "୍ୟ": 8228,
      "ez": 8229,
      "nĩ": 8230,
      "ві": 8231,
      "ase": 8232,
      "sí": 8233,
      "ڠن": 8234,
      "bon": 8235,
      "kara": 8236,
      "ུང": 8237,
      "عة": 8238,
      "କର": 8239,
      "ⴰⵡ": 8240,
      "ամ": 8241,
      "دار": 8242,
      "يل": 8243,
      "En": 8244,
      "pres": 8245,
      "dari": 8246,
      "્ર": 8247,
      "bɔ": 8248,
      "লি": 8249,
      "ⴰⵢ": 8250,
      "kama": 8251,
      "ဝ်း": 8252,
      "any": 8253,
      "bor": 8254,
      "नु": 8255,
      "197": 8256,
      "বে": 8257,
      "ць": 8258,
      "່າ": 8259,
      "lia": 8260,
      "τε": 8261,
      "тә": 8262,
      "رف": 8263,
      "ня": 8264,
      "ُو": 8265,
      "nge": 8266,
      "amin": 8267,
      "ಲಿ": 8268,
      "الإ": 8269,
      "են": 8270,
      "leh": 8271,
      "agus": 8272,
      "kada": 8273,
      "الب": 8274,
      "kir": 8275,
      "ཨིན": 8276,
      "tai": 8277,
      "སྐ": 8278,
      "esti": 8279,
      "Tur": 8280,
      "dro": 8281,
      "ción": 8282,
      "ನ್ನ": 8283,
      "cor": 8284,
      "ರ್": 8285,
      "स्य": 8286,
      "ында": 8287,
      "mũ": 8288,
      "kwi": 8289,
      "سى": 8290,
      "tet": 8291,
      "jar": 8292,
      "dor": 8293,
      "گە": 8294,
      "sas": 8295,
      "ako": 8296,
      "vas": 8297,
      "Li": 8298,
      "sak": 8299,
      "ras": 8300,
      "ney": 8301,
      "Po": 8302,
      "uru": 8303,
      "fir": 8304,
      "unu": 8305,
      "الو": 8306,
      "bur": 8307,
      "مش": 8308,
      "эн": 8309,
      "င့်": 8310,
      "end": 8311,
      "bantu": 8312,
      "èr": 8313,
      "हरू": 8314,
      "ர்": 8315,
      "kel": 8316,
      "кү": 8317,
      "At": 8318,
      "ela": 8319,
      "пра": 8320,
      "Mar": 8321,
      "jam": 8322,
      "ען": 8323,
      "གྲ": 8324,
      "kilo": 8325,
      "mwa": 8326,
      "plan": 8327,
      "मान": 8328,
      "Ti": 8329,
      "pos": 8330,
      "Ameri": 8331,
      "kang": 8332,
      "ind": 8333,
      "èt": 8334,
      "खा": 8335,
      "maa": 8336,
      "New": 8337,
      "jon": 8338,
      "تش": 8339,
      "tek": 8340,
      "jal": 8341,
      "ën": 8342,
      "হা": 8343,
      "вы": 8344,
      "әм": 8345,
      "ങ്": 8346,
      "ជា": 8347,
      "Ta": 8348,
      "zɩ": 8349,
      "های": 8350,
      "अप": 8351,
      "għ": 8352,
      "സ്": 8353,
      "ການ": 8354,
      "yat": 8355,
      "лар": 8356,
      "کان": 8357,
      "ಂದ": 8358,
      "tɛ": 8359,
      "wali": 8360,
      "bas": 8361,
      "وی": 8362,
      "მო": 8363,
      "eti": 8364,
      "ła": 8365,
      "अछि": 8366,
      "ལས": 8367,
      "esta": 8368,
      "cun": 8369,
      "лы": 8370,
      "್ರ": 8371,
      "lela": 8372,
      "my": 8373,
      "शा": 8374,
      "law": 8375,
      "ⵓⵏ": 8376,
      "zer": 8377,
      "ந்த": 8378,
      "ⵉⵜ": 8379,
      "ді": 8380,
      "ẹ̀": 8381,
      "റ്": 8382,
      "ener": 8383,
      "nas": 8384,
      "sɔ": 8385,
      "imp": 8386,
      "angu": 8387,
      "ႃႇ": 8388,
      "Metro": 8389,
      "वी": 8390,
      "ുന്ന": 8391,
      "mme": 8392,
      "bara": 8393,
      "àn": 8394,
      "על": 8395,
      "istan": 8396,
      "کې": 8397,
      "ಿದ": 8398,
      "poli": 8399,
      "35": 8400,
      "ནང": 8401,
      "bwa": 8402,
      "dde": 8403,
      "πο": 8404,
      "gon": 8405,
      "zan": 8406,
      "The": 8407,
      "ding": 8408,
      "39": 8409,
      "El": 8410,
      "No": 8411,
      "up": 8412,
      "cht": 8413,
      "dua": 8414,
      "ில்": 8415,
      "kulu": 8416,
      "ၢႆ": 8417,
      "tion": 8418,
      "bh": 8419,
      "бер": 8420,
      "ود": 8421,
      "پر": 8422,
      "was": 8423,
      "”.": 8424,
      "માં": 8425,
      "fon": 8426,
      "ارا": 8427,
      "ux": 8428,
      "mah": 8429,
      "ాల": 8430,
      "pada": 8431,
      "Pa": 8432,
      "iy": 8433,
      "ႃႈ": 8434,
      "stru": 8435,
      "লা": 8436,
      "བས": 8437,
      "Ale": 8438,
      "Chi": 8439,
      "kra": 8440,
      "жи": 8441,
      "int": 8442,
      "500": 8443,
      "mor": 8444,
      "ེན": 8445,
      "འབ": 8446,
      "ᱮᱱ": 8447,
      "യി": 8448,
      "kaka": 8449,
      "بن": 8450,
      "ès": 8451,
      "قي": 8452,
      "การ": 8453,
      "ကို": 8454,
      "nat": 8455,
      "ura": 8456,
      "uri": 8457,
      "वर्": 8458,
      "ប្រ": 8459,
      "dun": 8460,
      "tɩ": 8461,
      "vya": 8462,
      "ür": 8463,
      "മാ": 8464,
      "ဝ်ႉ": 8465,
      "dé": 8466,
      "له": 8467,
      "གྱི": 8468,
      "ᱫᱚ": 8469,
      "angi": 8470,
      "اری": 8471,
      "80": 8472,
      "ہی": 8473,
      "ंड": 8474,
      "fra": 8475,
      "છે": 8476,
      "ango": 8477,
      "бул": 8478,
      "ការ": 8479,
      "unga": 8480,
      "fil": 8481,
      "ns": 8482,
      "क्र": 8483,
      "ಸ್": 8484,
      "bai": 8485,
      "ਤੇ": 8486,
      "ட்ட": 8487,
      "este": 8488,
      "Mo": 8489,
      "kum": 8490,
      "ure": 8491,
      "jin": 8492,
      "mé": 8493,
      "хо": 8494,
      "جن": 8495,
      "aut": 8496,
      "kk": 8497,
      "কর": 8498,
      "nde": 8499,
      "ור": 8500,
      "ର୍": 8501,
      "ོག": 8502,
      "لر": 8503,
      "مح": 8504,
      "Star": 8505,
      "fal": 8506,
      "ré": 8507,
      "né": 8508,
      "pol": 8509,
      "Pro": 8510,
      "tah": 8511,
      "ур": 8512,
      "ற்": 8513,
      "ling": 8514,
      "tá": 8515,
      "mɔ": 8516,
      "ão": 8517,
      "qan": 8518,
      "نَ": 8519,
      "ər": 8520,
      "రి": 8521,
      "්‍": 8522,
      "pou": 8523,
      "ει": 8524,
      "ဖြ": 8525,
      "kay": 8526,
      "nei": 8527,
      "Ca": 8528,
      "шу": 8529,
      "sel": 8530,
      "Gre": 8531,
      "lɔ": 8532,
      "چې": 8533,
      "تە": 8534,
      "ကြ": 8535,
      "spe": 8536,
      "wha": 8537,
      "ენ": 8538,
      "ⵉⵎ": 8539,
      "att": 8540,
      "eka": 8541,
      "mala": 8542,
      "nda": 8543,
      "ਦੀ": 8544,
      "إلى": 8545,
      "མས": 8546,
      "posi": 8547,
      "ao": 8548,
      "John": 8549,
      "90": 8550,
      "hte": 8551,
      "کا": 8552,
      "ିକ": 8553,
      "mus": 8554,
      "алы": 8555,
      "iki": 8556,
      "uh": 8557,
      "ør": 8558,
      "ᱟᱭ": 8559,
      "ၢင်": 8560,
      "nyang": 8561,
      "جر": 8562,
      "wor": 8563,
      "bri": 8564,
      "कु": 8565,
      "सु": 8566,
      "ڽڠ": 8567,
      "ende": 8568,
      "কা": 8569,
      "লে": 8570,
      "ది": 8571,
      "ges": 8572,
      "зе": 8573,
      "خل": 8574,
      "As": 8575,
      "kö": 8576,
      "ғы": 8577,
      "dad": 8578,
      "ima": 8579,
      "мі": 8580,
      "მა": 8581,
      "inn": 8582,
      "́n": 8583,
      "kis": 8584,
      "ཀྱི": 8585,
      "باش": 8586,
      "Air": 8587,
      "ika": 8588,
      "kim": 8589,
      "ութ": 8590,
      "ئي": 8591,
      "اق": 8592,
      "dem": 8593,
      "শিং": 8594,
      "ски": 8595,
      "པའི": 8596,
      "али": 8597,
      "kap": 8598,
      "rɔ": 8599,
      "ذا": 8600,
      "দি": 8601,
      "GP": 8602,
      "لة": 8603,
      "ам": 8604,
      "دٗ": 8605,
      "ོས": 8606,
      "dak": 8607,
      "mali": 8608,
      "leng": 8609,
      "ನ್ನು": 8610,
      "ছিল": 8611,
      "ẹ́": 8612,
      "avi": 8613,
      "ուն": 8614,
      "सभ": 8615,
      "وس": 8616,
      "الش": 8617,
      "cas": 8618,
      "лу": 8619,
      "пе": 8620,
      "ⵓⵍ": 8621,
      "dina": 8622,
      "hpe": 8623,
      "לי": 8624,
      "छु": 8625,
      "sala": 8626,
      "alle": 8627,
      "Tu": 8628,
      "rɛ": 8629,
      "22": 8630,
      "won": 8631,
      "пи": 8632,
      "मं": 8633,
      "টি": 8634,
      "ရှ": 8635,
      "দু": 8636,
      "ერ": 8637,
      "adh": 8638,
      "hy": 8639,
      "ની": 8640,
      "tura": 8641,
      "тү": 8642,
      "εί": 8643,
      "об": 8644,
      "oli": 8645,
      "uz": 8646,
      "ade": 8647,
      "aya": 8648,
      "بد": 8649,
      "giti": 8650,
      "vä": 8651,
      "ાર": 8652,
      "tis": 8653,
      "yal": 8654,
      "nyan": 8655,
      "اون": 8656,
      "ပါ": 8657,
      "Dis": 8658,
      "kali": 8659,
      "mene": 8660,
      "Il": 8661,
      "gg": 8662,
      "say": 8663,
      "saba": 8664,
      "red": 8665,
      "mingi": 8666,
      "ավ": 8667,
      "sai": 8668,
      "ڤي": 8669,
      "sur": 8670,
      "keun": 8671,
      "sos": 8672,
      "tshi": 8673,
      "بعد": 8674,
      "नो": 8675,
      "बे": 8676,
      "ers": 8677,
      "Co": 8678,
      "गे": 8679,
      "là": 8680,
      "الط": 8681,
      "ությ": 8682,
      "tara": 8683,
      "ola": 8684,
      "გა": 8685,
      "dɔ": 8686,
      "श्": 8687,
      "ರು": 8688,
      "kg": 8689,
      "tó": 8690,
      "ni̱": 8691,
      "ад": 8692,
      "ယဝ်ႉ": 8693,
      "ọ̀": 8694,
      "ite": 8695,
      "imi": 8696,
      "kr": 8697,
      "يم": 8698,
      "ڽو": 8699,
      "লৈ": 8700,
      "្ល": 8701,
      "seg": 8702,
      "set": 8703,
      "13": 8704,
      "Ho": 8705,
      "تص": 8706,
      "ଥି": 8707,
      "Euro": 8708,
      "i̱": 8709,
      "अध": 8710,
      "way": 8711,
      "dus": 8712,
      "lä": 8713,
      "ға": 8714,
      "टे": 8715,
      "បាន": 8716,
      "ula": 8717,
      "كت": 8718,
      "kele": 8719,
      "nar": 8720,
      "për": 8721,
      "অম": 8722,
      "ங்க": 8723,
      "ລະ": 8724,
      "een": 8725,
      "mata": 8726,
      "حد": 8727,
      "bra": 8728,
      "һәм": 8729,
      "تھ": 8730,
      "ដែ": 8731,
      "این": 8732,
      "kti": 8733,
      "òr": 8734,
      "це": 8735,
      "ໃນ": 8736,
      "\",": 8737,
      "وه": 8738,
      "anan": 8739,
      "ske": 8740,
      "جه": 8741,
      "లో": 8742,
      "via": 8743,
      "hlo": 8744,
      "ثر": 8745,
      "bia": 8746,
      "kaj": 8747,
      "ਾਰ": 8748,
      "്യ": 8749,
      "enge": 8750,
      "tari": 8751,
      "بة": 8752,
      "ros": 8753,
      "lui": 8754,
      "हर": 8755,
      "sum": 8756,
      "lí": 8757,
      "מי": 8758,
      "ႂ်": 8759,
      "pis": 8760,
      "نڠ": 8761,
      "ေး": 8762,
      "कें": 8763,
      "mə": 8764,
      "ған": 8765,
      "जी": 8766,
      "dig": 8767,
      "TA": 8768,
      "bana": 8769,
      "và": 8770,
      "ген": 8771,
      "tok": 8772,
      "اء": 8773,
      "క్": 8774,
      "comp": 8775,
      "करे": 8776,
      "ŋu": 8777,
      "ിക്ക": 8778,
      "saka": 8779,
      "Ni": 8780,
      "tic": 8781,
      "vir": 8782,
      "بى": 8783,
      "чы": 8784,
      "zion": 8785,
      "ہے": 8786,
      "deg": 8787,
      "nia": 8788,
      "ña": 8789,
      "St": 8790,
      "لَ": 8791,
      "ཅིག": 8792,
      "eb": 8793,
      "fai": 8794,
      "Bar": 8795,
      "धा": 8796,
      "တ်း": 8797,
      "tʋ": 8798,
      "ран": 8799,
      "بات": 8800,
      "ds": 8801,
      "vá": 8802,
      "ρο": 8803,
      "ুং": 8804,
      "lei": 8805,
      "sane": 8806,
      "jer": 8807,
      "إن": 8808,
      "Atlan": 8809,
      "يو": 8810,
      "ਹੈ": 8811,
      "dian": 8812,
      "rus": 8813,
      "раз": 8814,
      "num": 8815,
      "gani": 8816,
      "mir": 8817,
      "ני": 8818,
      "রি": 8819,
      "වි": 8820,
      "ႆႉ": 8821,
      "رن": 8822,
      "Afri": 8823,
      "dhi": 8824,
      "tā": 8825,
      "vé": 8826,
      "аз": 8827,
      "эр": 8828,
      "पू": 8829,
      "saa": 8830,
      "أك": 8831,
      "عن": 8832,
      "gas": 8833,
      "më": 8834,
      "ún": 8835,
      "wọn": 8836,
      "Ba": 8837,
      "देश": 8838,
      "Bel": 8839,
      "yak": 8840,
      "pod": 8841,
      "ార": 8842,
      "थे": 8843,
      "မိူ": 8844,
      "mel": 8845,
      "ற்ற": 8846,
      "ను": 8847,
      "Ste": 8848,
      "mati": 8849,
      "sana": 8850,
      "yer": 8851,
      "बर": 8852,
      "यन": 8853,
      "နှ": 8854,
      "ft": 8855,
      "kes": 8856,
      "бы": 8857,
      "mul": 8858,
      "br": 8859,
      "pho": 8860,
      "Mas": 8861,
      "kɩ": 8862,
      "مت": 8863,
      "यु": 8864,
      "្ត": 8865,
      "56": 8866,
      "že": 8867,
      "چھ": 8868,
      "ීම": 8869,
      "port": 8870,
      "76": 8871,
      "tou": 8872,
      "tä": 8873,
      "yana": 8874,
      "öö": 8875,
      "रूप": 8876,
      "צו": 8877,
      "tus": 8878,
      "пол": 8879,
      "থা": 8880,
      "اسي": 8881,
      "ii": 8882,
      "jet": 8883,
      "ོར": 8884,
      "ange": 8885,
      "phe": 8886,
      "бі": 8887,
      "ատ": 8888,
      "ᱛᱮ": 8889,
      "parti": 8890,
      "fat": 8891,
      "шы": 8892,
      "सक": 8893,
      "lı": 8894,
      "عل": 8895,
      "ग्र": 8896,
      "ႃး": 8897,
      "ngan": 8898,
      "दी": 8899,
      "ಕ್": 8900,
      "ດ້": 8901,
      "stan": 8902,
      "ере": 8903,
      "nna": 8904,
      "ဵၼ်": 8905,
      "اله": 8906,
      "lè": 8907,
      "mpa": 8908,
      "гы": 8909,
      "кө": 8910,
      "مخ": 8911,
      "ში": 8912,
      "dur": 8913,
      "നി": 8914,
      "ੱਚ": 8915,
      "tɔn": 8916,
      "ਦਾ": 8917,
      "নে": 8918,
      "ubu": 8919,
      "zon": 8920,
      "зна": 8921,
      "vei": 8922,
      "46": 8923,
      "yé": 8924,
      "بح": 8925,
      "كَ": 8926,
      "ുക": 8927,
      "الف": 8928,
      "lot": 8929,
      "ად": 8930,
      "ची": 8931,
      "اند": 8932,
      "2009": 8933,
      "ွင်ႈ": 8934,
      "кар": 8935,
      "ାନ": 8936,
      "web": 8937,
      "Gu": 8938,
      "gor": 8939,
      "ôr": 8940,
      "што": 8941,
      "اه": 8942,
      "алар": 8943,
      "ဝ်ႈ": 8944,
      "ema": 8945,
      "ုံ": 8946,
      "elle": 8947,
      "alah": 8948,
      "2008": 8949,
      "میں": 8950,
      "লো": 8951,
      "ତି": 8952,
      "rans": 8953,
      "forma": 8954,
      "kina": 8955,
      "غان": 8956,
      "ᱤᱫ": 8957,
      "kapa": 8958,
      "nyi": 8959,
      "tala": 8960,
      "ōm": 8961,
      "ནས": 8962,
      "mos": 8963,
      "ادي": 8964,
      "ို့": 8965,
      "mara": 8966,
      "qo": 8967,
      "عد": 8968,
      "anna": 8969,
      "ці": 8970,
      "مس": 8971,
      "ᱠᱷ": 8972,
      "प्": 8973,
      "ใน": 8974,
      "हैं": 8975,
      "лан": 8976,
      "үн": 8977,
      "کي": 8978,
      "सब": 8979,
      "जन": 8980,
      "सर": 8981,
      "প্র": 8982,
      "diri": 8983,
      "sẽ": 8984,
      "مَ": 8985,
      "ِنْ": 8986,
      "လူ": 8987,
      "mia": 8988,
      "Man": 8989,
      "pl": 8990,
      "vor": 8991,
      "tau": 8992,
      "ži": 8993,
      "ван": 8994,
      "مة": 8995,
      "ାଇ": 8996,
      "یک": 8997,
      "ස්": 8998,
      "Go": 8999,
      "reg": 9000,
      "non": 9001,
      "tim": 9002,
      "bun": 9003,
      "yd": 9004,
      "حي": 9005,
      "ᱟᱦ": 9006,
      "atan": 9007,
      "oko": 9008,
      "भी": 9009,
      "ಲ್ಲಿ": 9010,
      "či": 9011,
      "بك": 9012,
      "າຍ": 9013,
      "uf": 9014,
      "эг": 9015,
      "urs": 9016,
      "مە": 9017,
      "dei": 9018,
      "ങ്ങ": 9019,
      "طر": 9020,
      "ᱭᱟᱜ": 9021,
      "lun": 9022,
      "गर्": 9023,
      "Ne": 9024,
      "នៅ": 9025,
      "ⵉⴷ": 9026,
      "نىڭ": 9027,
      "ដែល": 9028,
      "פאר": 9029,
      "aren": 9030,
      "gai": 9031,
      "sɩ": 9032,
      "хи": 9033,
      "אט": 9034,
      "mek": 9035,
      "60": 9036,
      "ñu": 9037,
      "རི": 9038,
      "کار": 9039,
      "ናይ": 9040,
      "nom": 9041,
      "بين": 9042,
      "ᱠᱟᱱ": 9043,
      "dag": 9044,
      "του": 9045,
      "قل": 9046,
      "tag": 9047,
      "lwa": 9048,
      "टी": 9049,
      "ath": 9050,
      "ⴷⴰⵗ": 9051,
      "סט": 9052,
      "andi": 9053,
      "gia": 9054,
      "vyo": 9055,
      "bua": 9056,
      "nke": 9057,
      "ុង": 9058,
      "ورو": 9059,
      "కు": 9060,
      "ರಿ": 9061,
      "ႆႈ": 9062,
      "dol": 9063,
      "ानी": 9064,
      "ње": 9065,
      "cul": 9066,
      "ını": 9067,
      "cie": 9068,
      "pla": 9069,
      "swi": 9070,
      "με": 9071,
      "של": 9072,
      "ిం": 9073,
      "elu": 9074,
      "oi": 9075,
      "дан": 9076,
      "versi": 9077,
      "thern": 9078,
      "פון": 9079,
      "кан": 9080,
      "آن": 9081,
      "Te": 9082,
      "já": 9083,
      "әр": 9084,
      "ைய": 9085,
      "lag": 9086,
      "baa": 9087,
      "ibi": 9088,
      "ब्": 9089,
      "ਵਿੱਚ": 9090,
      "Ja": 9091,
      "Pak": 9092,
      "थि": 9093,
      "່ງ": 9094,
      "ელ": 9095,
      "gol": 9096,
      "wet": 9097,
      "ši": 9098,
      "صل": 9099,
      "າມ": 9100,
      "dang": 9101,
      "ئى": 9102,
      "हल": 9103,
      "lek": 9104,
      "dre": 9105,
      "gɔ": 9106,
      "ndo": 9107,
      "indu": 9108,
      "Per": 9109,
      "gro": 9110,
      "ddi": 9111,
      "زي": 9112,
      "एगो": 9113,
      "Pi": 9114,
      "cent": 9115,
      "twa": 9116,
      "və": 9117,
      "شى": 9118,
      "kuri": 9119,
      "mita": 9120,
      "ía": 9121,
      "ڤو": 9122,
      "ishi": 9123,
      "hana": 9124,
      "yet": 9125,
      "тан": 9126,
      "वय": 9127,
      "gur": 9128,
      "кон": 9129,
      "ké": 9130,
      "سے": 9131,
      "ध्य": 9132,
      "प्रा": 9133,
      "yê": 9134,
      "ρα": 9135,
      "గా": 9136,
      "anta": 9137,
      "há": 9138,
      "רי": 9139,
      "Char": 9140,
      "بان": 9141,
      "ਿਆ": 9142,
      "ସ୍": 9143,
      "ⵍⵍ": 9144,
      "چو": 9145,
      "లు": 9146,
      "kuba": 9147,
      "pes": 9148,
      "visi": 9149,
      "ாக": 9150,
      "الخ": 9151,
      "vaan": 9152,
      "ләр": 9153,
      "ich": 9154,
      "ज़": 9155,
      "enti": 9156,
      "bol": 9157,
      "wara": 9158,
      "တွင်": 9159,
      "kolo": 9160,
      "proble": 9161,
      "یو": 9162,
      "သော": 9163,
      "स्त": 9164,
      "bali": 9165,
      "гі": 9166,
      "មាន": 9167,
      "الص": 9168,
      "kola": 9169,
      "keu": 9170,
      "mung": 9171,
      "ັບ": 9172,
      "dza": 9173,
      "ner": 9174,
      "ło": 9175,
      "चि": 9176,
      "हय": 9177,
      "ून": 9178,
      "adi": 9179,
      "oyo": 9180,
      "بس": 9181,
      "ەی": 9182,
      "पि": 9183,
      "dau": 9184,
      "ide": 9185,
      "wh": 9186,
      "टि": 9187,
      "bile": 9188,
      "tə": 9189,
      "ຂອງ": 9190,
      "300": 9191,
      "ின்": 9192,
      "่ง": 9193,
      "foto": 9194,
      "ⵉⵔ": 9195,
      "eno": 9196,
      "الر": 9197,
      "waku": 9198,
      "oria": 9199,
      "kla": 9200,
      "yɔɔ": 9201,
      "bere": 9202,
      "rt": 9203,
      "ito": 9204,
      "ame": 9205,
      "لك": 9206,
      "შე": 9207,
      "kil": 9208,
      "કર": 9209,
      "पु": 9210,
      "সা": 9211,
      "તે": 9212,
      "କୁ": 9213,
      "ví": 9214,
      "דער": 9215,
      "פי": 9216,
      "عت": 9217,
      "णा": 9218,
      "ⵡⴰ": 9219,
      "ât": 9220,
      "ച്": 9221,
      "ავ": 9222,
      "aru": 9223,
      "maj": 9224,
      "nos": 9225,
      "aan": 9226,
      "iyo": 9227,
      "سل": 9228,
      "ັດ": 9229,
      "dum": 9230,
      "aa": 9231,
      "tta": 9232,
      "ті": 9233,
      "طل": 9234,
      "pul": 9235,
      "च्": 9236,
      "शि": 9237,
      "sil": 9238,
      "کھ": 9239,
      "Har": 9240,
      "Su": 9241,
      "pet": 9242,
      "als": 9243,
      "ında": 9244,
      "rá": 9245,
      "untu": 9246,
      "biri": 9247,
      "cio": 9248,
      "gos": 9249,
      "sou": 9250,
      "vil": 9251,
      "gran": 9252,
      "ɖɔ": 9253,
      "دول": 9254,
      "တီ": 9255,
      "ាំ": 9256,
      "daɣ": 9257,
      "itt": 9258,
      "idh": 9259,
      "dru": 9260,
      "tla": 9261,
      "Rock": 9262,
      "cara": 9263,
      "gbe": 9264,
      "akan": 9265,
      "мә": 9266,
      "kuli": 9267,
      "wak": 9268,
      "rap": 9269,
      "фи": 9270,
      "য়ে": 9271,
      "რი": 9272,
      "xo": 9273,
      "चे": 9274,
      "ওই": 9275,
      "ဲ့": 9276,
      "inde": 9277,
      "kasa": 9278,
      "hari": 9279,
      "èn": 9280,
      "ⵏⵏ": 9281,
      "खे": 9282,
      "དུ": 9283,
      "gre": 9284,
      "کہ": 9285,
      "ຫຼ": 9286,
      "ები": 9287,
      "പ്പ": 9288,
      "Bri": 9289,
      "mĩ": 9290,
      "вер": 9291,
      "רו": 9292,
      "שט": 9293,
      "ছে": 9294,
      "니다": 9295,
      "anya": 9296,
      "ard": 9297,
      "μα": 9298,
      "খি": 9299,
      "સ્": 9300,
      "yaka": 9301,
      "wis": 9302,
      "öl": 9303,
      "bata": 9304,
      "olu": 9305,
      "wang": 9306,
      "าม": 9307,
      "ted": 9308,
      "بق": 9309,
      "دين": 9310,
      "च्या": 9311,
      "टर": 9312,
      "तः": 9313,
      "སྦ": 9314,
      "bru": 9315,
      "uti": 9316,
      "ση": 9317,
      "ᱚᱨ": 9318,
      "ⵜⴰⵏ": 9319,
      "kung": 9320,
      "py": 9321,
      "unning": 9322,
      "гра": 9323,
      "كر": 9324,
      "ڤا": 9325,
      "न्य": 9326,
      "bha": 9327,
      "elo": 9328,
      "اني": 9329,
      "ast": 9330,
      "fel": 9331,
      "нь": 9332,
      "दु": 9333,
      "ების": 9334,
      "και": 9335,
      "কি": 9336,
      "ර්": 9337,
      "ด้": 9338,
      "လွင်ႈ": 9339,
      "lain": 9340,
      "tom": 9341,
      "nun": 9342,
      "år": 9343,
      "ེས": 9344,
      "الا": 9345,
      "nel": 9346,
      "kita": 9347,
      "bala": 9348,
      "قع": 9349,
      "bisa": 9350,
      "gala": 9351,
      "vun": 9352,
      "ун": 9353,
      "ર્": 9354,
      "aran": 9355,
      "dit": 9356,
      "эл": 9357,
      "pek": 9358,
      "аль": 9359,
      "Itali": 9360,
      "زم": 9361,
      "মি": 9362,
      "ான": 9363,
      "དག": 9364,
      "waka": 9365,
      "mani": 9366,
      "hist": 9367,
      "jis": 9368,
      "कृ": 9369,
      "art": 9370,
      "تلف": 9371,
      "hel": 9372,
      "مار": 9373,
      "Me": 9374,
      "utu": 9375,
      "ско": 9376,
      "ති": 9377,
      "nak": 9378,
      "mä": 9379,
      "ভা": 9380,
      "მი": 9381,
      "ኣብ": 9382,
      "kota": 9383,
      "baka": 9384,
      "اتو": 9385,
      "có": 9386,
      "hta": 9387,
      "și": 9388,
      "ໄດ້": 9389,
      "kwan": 9390,
      "lɩ": 9391,
      "سَ": 9392,
      "डि": 9393,
      "ଙ୍": 9394,
      "ระ": 9395,
      "ું": 9396,
      "ⵉⴳ": 9397,
      "kho": 9398,
      "zz": 9399,
      "तो": 9400,
      "ਕਰ": 9401,
      "baha": 9402,
      "person": 9403,
      "сан": 9404,
      "ུག": 9405,
      "ပဵၼ်": 9406,
      "strali": 9407,
      "ρι": 9408,
      "عام": 9409,
      "आप": 9410,
      "गा": 9411,
      "ਾਲ": 9412,
      "လႆႈ": 9413,
      "Be": 9414,
      "mh": 9415,
      "más": 9416,
      "Northern": 9417,
      "าก": 9418,
      "organ": 9419,
      "kira": 9420,
      "ih": 9421,
      "ash": 9422,
      "gui": 9423,
      "aho": 9424,
      "uli": 9425,
      "ñe": 9426,
      "جز": 9427,
      "कम": 9428,
      "ਕਿ": 9429,
      "གིས": 9430,
      "ҳои": 9431,
      "over": 9432,
      "ობ": 9433,
      "við": 9434,
      "qui": 9435,
      "tša": 9436,
      "kwenda": 9437,
      "untuk": 9438,
      "gua": 9439,
      "دون": 9440,
      "غير": 9441,
      "ەت": 9442,
      "ats": 9443,
      "ezi": 9444,
      "уд": 9445,
      "بش": 9446,
      "કે": 9447,
      "12": 9448,
      "dá": 9449,
      "ých": 9450,
      "ron": 9451,
      "çi": 9452,
      "или": 9453,
      "सँ": 9454,
      "tama": 9455,
      "Ke": 9456,
      "خص": 9457,
      "një": 9458,
      "ùn": 9459,
      "قی": 9460,
      "अनु": 9461,
      "sol": 9462,
      "gati": 9463,
      "oti": 9464,
      "ับ": 9465,
      "adu": 9466,
      "tti": 9467,
      "نے": 9468,
      "ప్ర": 9469,
      "ಮಾ": 9470,
      "້າ": 9471,
      "raz": 9472,
      "cos": 9473,
      "ത്തി": 9474,
      "ary": 9475,
      "الك": 9476,
      "jed": 9477,
      "dda": 9478,
      "kale": 9479,
      "rũ": 9480,
      "කි": 9481,
      "ම්": 9482,
      "ၢင်း": 9483,
      "እን": 9484,
      "ith": 9485,
      "nye": 9486,
      "ска": 9487,
      "ôn": 9488,
      "ུལ": 9489,
      "ོགས": 9490,
      "sch": 9491,
      "Los": 9492,
      "ың": 9493,
      "בי": 9494,
      "འག": 9495,
      "ọ́": 9496,
      "komp": 9497,
      "zwe": 9498,
      "مْ": 9499,
      "ுக": 9500,
      "แล": 9501,
      "ایی": 9502,
      "hle": 9503,
      "ৰু": 9504,
      "్య": 9505,
      "ವು": 9506,
      "anti": 9507,
      "ཡོདཔ": 9508,
      "kā": 9509,
      "łe": 9510,
      "σε": 9511,
      "வி": 9512,
      "gba": 9513,
      "ue": 9514,
      "vet": 9515,
      "ੂੰ": 9516,
      "jɛ": 9517,
      "chuan": 9518,
      "मंज़": 9519,
      "get": 9520,
      "ɖɩ": 9521,
      "يت": 9522,
      "sim": 9523,
      "ဖြစ်": 9524,
      "ရှိ": 9525,
      "ake": 9526,
      "ប់": 9527,
      "waa": 9528,
      "ture": 9529,
      "kè": 9530,
      "बि": 9531,
      "muri": 9532,
      "Inter": 9533,
      "්‍ර": 9534,
      "တီႈ": 9535,
      "кы": 9536,
      "شن": 9537,
      "قان": 9538,
      "जि": 9539,
      "ਨੂੰ": 9540,
      "่อ": 9541,
      "bay": 9542,
      "anada": 9543,
      "ება": 9544,
      "800": 9545,
      "တွ": 9546,
      "enda": 9547,
      "стан": 9548,
      "weni": 9549,
      "ہیں": 9550,
      "অসি": 9551,
      "ില": 9552,
      "iç": 9553,
      "mí": 9554,
      "تہٕ": 9555,
      "और": 9556,
      "ха": 9557,
      "өл": 9558,
      "يِ": 9559,
      "ၢၼ်": 9560,
      "မ်ႇ": 9561,
      "ական": 9562,
      "Disney": 9563,
      "ps": 9564,
      "ंद": 9565,
      "kri": 9566,
      "malo": 9567,
      "رب": 9568,
      "lit": 9569,
      "god": 9570,
      "ари": 9571,
      "internet": 9572,
      "rĩa": 9573,
      "Running": 9574,
      "сі": 9575,
      "ये": 9576,
      "தி": 9577,
      "าย": 9578,
      "gue": 9579,
      "cur": 9580,
      "ŵa": 9581,
      "мп": 9582,
      "شت": 9583,
      "مق": 9584,
      "amba": 9585,
      "hand": 9586,
      "qe": 9587,
      "رُ": 9588,
      "وار": 9589,
      "kol": 9590,
      "He": 9591,
      "cre": 9592,
      "णि": 9593,
      "eller": 9594,
      "moto": 9595,
      "ves": 9596,
      "गर": 9597,
      "वर": 9598,
      "রা": 9599,
      "eru": 9600,
      "lama": 9601,
      "isha": 9602,
      "nau": 9603,
      "sus": 9604,
      "wng": 9605,
      "প্ৰ": 9606,
      "ಿಸ": 9607,
      "ೆಯ": 9608,
      "лек": 9609,
      ".”": 9610,
      "69": 9611,
      "kə": 9612,
      "were": 9613,
      "αν": 9614,
      "ৰ্": 9615,
      "റ്റ": 9616,
      "oj": 9617,
      "wel": 9618,
      "iste": 9619,
      "ði": 9620,
      "ၵူ": 9621,
      "ⵓⵜ": 9622,
      "but": 9623,
      "ция": 9624,
      "ìn": 9625,
      "گی": 9626,
      "ষ্": 9627,
      "ass": 9628,
      "Ken": 9629,
      "Ra": 9630,
      "amu": 9631,
      "gũ": 9632,
      "гә": 9633,
      "195": 9634,
      "160": 9635,
      "tše": 9636,
      "48": 9637,
      "Ber": 9638,
      "ole": 9639,
      "гэ": 9640,
      "بیر": 9641,
      "tika": 9642,
      "atau": 9643,
      "Ha": 9644,
      "אס": 9645,
      "أَ": 9646,
      "tumi": 9647,
      "وري": 9648,
      "parte": 9649,
      "ül": 9650,
      "ⵓⵎ": 9651,
      "88": 9652,
      "ää": 9653,
      "چى": 9654,
      "بعض": 9655,
      "nji": 9656,
      "inte": 9657,
      "2010": 9658,
      "دۇ": 9659,
      "يْ": 9660,
      "တၢင်း": 9661,
      "lika": 9662,
      "dze": 9663,
      "éra": 9664,
      "اخ": 9665,
      "ੋਂ": 9666,
      "ayeke": 9667,
      "जो": 9668,
      "ᱟᱣ": 9669,
      "peu": 9670,
      "ᱨᱮᱭᱟᱜ": 9671,
      "gn": 9672,
      "उप": 9673,
      "Ari": 9674,
      "ida": 9675,
      "як": 9676,
      "ול": 9677,
      "ታት": 9678,
      "wɔn": 9679,
      "אוי": 9680,
      "ପ୍ର": 9681,
      "້ນ": 9682,
      "Amerika": 9683,
      "Pakistan": 9684,
      "sá": 9685,
      "बो": 9686,
      "ହି": 9687,
      "སྤ": 9688,
      "kot": 9689,
      "pele": 9690,
      "dị": 9691,
      "qq": 9692,
      "τι": 9693,
      "ສະ": 9694,
      "dio": 9695,
      "34": 9696,
      "45": 9697,
      "usu": 9698,
      "وز": 9699,
      "21": 9700,
      "bụ": 9701,
      "ime": 9702,
      "ัน": 9703,
      "ယူ": 9704,
      "149": 9705,
      "29": 9706,
      "ас": 9707,
      "ет": 9708,
      "તા": 9709,
      "ens": 9710,
      "naj": 9711,
      "ort": 9712,
      "ram": 9713,
      "US": 9714,
      "för": 9715,
      "शन": 9716,
      "ట్": 9717,
      "ႄႈ": 9718,
      "ans": 9719,
      "inya": 9720,
      "tivi": 9721,
      "Da": 9722,
      "لوم": 9723,
      "भव": 9724,
      "ity": 9725,
      "लोग": 9726,
      "dó": 9727,
      "བར": 9728,
      "မီး": 9729,
      "amb": 9730,
      "pel": 9731,
      "пу": 9732,
      "ող": 9733,
      "ាក": 9734,
      "kau": 9735,
      "rum": 9736,
      "Ser": 9737,
      "πό": 9738,
      "เป": 9739,
      "Lo": 9740,
      "тр": 9741,
      "ով": 9742,
      "ত্": 9743,
      "ခြ": 9744,
      "ႂ်း": 9745,
      "rom": 9746,
      "pie": 9747,
      "pete": 9748,
      "وقت": 9749,
      "पूर्": 9750,
      "OL": 9751,
      "ཡང": 9752,
      "vari": 9753,
      "وف": 9754,
      "ស់": 9755,
      "مى": 9756,
      "ज्": 9757,
      "masa": 9758,
      "nam": 9759,
      "ania": 9760,
      "بير": 9761,
      "dalam": 9762,
      "্যা": 9763,
      "ló": 9764,
      "וי": 9765,
      "أي": 9766,
      "कै": 9767,
      "rai": 9768,
      "pasi": 9769,
      "କରି": 9770,
      "mma": 9771,
      "rā": 9772,
      "mie": 9773,
      "moo": 9774,
      "Vir": 9775,
      "cɔ": 9776,
      "sho": 9777,
      "yina": 9778,
      "ಿಯ": 9779,
      "ony": 9780,
      "प्रति": 9781,
      "iku": 9782,
      "रु": 9783,
      "နေ": 9784,
      "lad": 9785,
      "kei": 9786,
      "Tri": 9787,
      "Ze": 9788,
      "बी": 9789,
      "त्रा": 9790,
      "און": 9791,
      "lor": 9792,
      "ğan": 9793,
      "যা": 9794,
      "lak": 9795,
      "še": 9796,
      "ос": 9797,
      "فت": 9798,
      "रहे": 9799,
      "രു": 9800,
      "fen": 9801,
      "lala": 9802,
      "she": 9803,
      "ça": 9804,
      "үй": 9805,
      "مه": 9806,
      "গু": 9807,
      "සි": 9808,
      "CO": 9809,
      "гар": 9810,
      "व्य": 9811,
      "ුව": 9812,
      "ᱟᱢ": 9813,
      "dire": 9814,
      "gru": 9815,
      "lal": 9816,
      "mā": 9817,
      "mini": 9818,
      "dik": 9819,
      "sau": 9820,
      "kanye": 9821,
      "fran": 9822,
      "ချ": 9823,
      "jak": 9824,
      "blo": 9825,
      "ၼႂ်း": 9826,
      "kia": 9827,
      "sub": 9828,
      "nyo": 9829,
      "ɔ́": 9830,
      "הי": 9831,
      "شان": 9832,
      "ৰা": 9833,
      "ⵉⵍ": 9834,
      "mane": 9835,
      "می‌": 9836,
      "kre": 9837,
      "sang": 9838,
      "جل": 9839,
      "้น": 9840,
      "སྟ": 9841,
      "Die": 9842,
      "ado": 9843,
      "puni": 9844,
      "առ": 9845,
      "աս": 9846,
      "اً": 9847,
      "شا": 9848,
      "ڤر": 9849,
      "টা": 9850,
      "ട്ട": 9851,
      "dah": 9852,
      "eso": 9853,
      "kiri": 9854,
      "وری": 9855,
      "ndũ": 9856,
      "འབད": 9857,
      "AOL": 9858,
      "cá": 9859,
      "dwa": 9860,
      "ऊर": 9861,
      "গা": 9862,
      "្វ": 9863,
      "ارة": 9864,
      "fia": 9865,
      "kǝ": 9866,
      "publi": 9867,
      "mü": 9868,
      "vr": 9869,
      "ša": 9870,
      "दू": 9871,
      "ungu": 9872,
      "тай": 9873,
      "ண்ட": 9874,
      "ിയ": 9875,
      "ᱨᱤ": 9876,
      "ⵓⴷ": 9877,
      "ando": 9878,
      "alla": 9879,
      "Bla": 9880,
      "abo": 9881,
      "pò": 9882,
      "sor": 9883,
      "নবা": 9884,
      "್ಯ": 9885,
      "มี": 9886,
      "ယ်": 9887,
      "onga": 9888,
      "bah": 9889,
      "Francis": 9890,
      "ov": 9891,
      "ৱা": 9892,
      "သူ": 9893,
      "enga": 9894,
      "ght": 9895,
      "Es": 9896,
      "сә": 9897,
      "աց": 9898,
      "naka": 9899,
      "tana": 9900,
      "zvi": 9901,
      "দে": 9902,
      "pʋ": 9903,
      "និ": 9904,
      "laa": 9905,
      "site": 9906,
      "ui": 9907,
      "सन": 9908,
      "bert": 9909,
      "dɛ": 9910,
      "fɛ": 9911,
      "pala": 9912,
      "rí": 9913,
      "ек": 9914,
      "ئۇ": 9915,
      "কো": 9916,
      "અને": 9917,
      "ือ": 9918,
      "ინ": 9919,
      "אין": 9920,
      "Con": 9921,
      "็น": 9922,
      "သေ": 9923,
      "ti̱": 9924,
      "wanpela": 9925,
      "nà": 9926,
      "tē": 9927,
      "رَ": 9928,
      "ਅਤੇ": 9929,
      "່ນ": 9930,
      "aland": 9931,
      "atra": 9932,
      "has": 9933,
      "لاء": 9934,
      "iza": 9935,
      "jas": 9936,
      "må": 9937,
      "ông": 9938,
      "ων": 9939,
      "ונ": 9940,
      "ହା": 9941,
      "ligi": 9942,
      "baş": 9943,
      "ிற": 9944,
      "pay": 9945,
      "key": 9946,
      "apo": 9947,
      "katu": 9948,
      "੍ਰ": 9949,
      "paq": 9950,
      "Australi": 9951,
      "plo": 9952,
      "ແລະ": 9953,
      "tie": 9954,
      "rie": 9955,
      "pak": 9956,
      "pia": 9957,
      "ارو": 9958,
      "ক্ষ": 9959,
      "Grand": 9960,
      "dya": 9961,
      "उत्": 9962,
      "ခဲ့": 9963,
      "ូវ": 9964,
      "द्ध": 9965,
      "Bra": 9966,
      "MR": 9967,
      "bé": 9968,
      "eza": 9969,
      "fut": 9970,
      "jum": 9971,
      "କ୍": 9972,
      "يني": 9973,
      "မှု": 9974,
      "Bal": 9975,
      "bera": 9976,
      "uo": 9977,
      "teh": 9978,
      "jadi": 9979,
      "ווי": 9980,
      "Col": 9981,
      "hr": 9982,
      "ву": 9983,
      "зо": 9984,
      "طور": 9985,
      "ڽن": 9986,
      "ବି": 9987,
      "hai": 9988,
      "tum": 9989,
      "ತ್ತು": 9990,
      "Plus": 9991,
      "că": 9992,
      "gĩ": 9993,
      "gang": 9994,
      "hɔ": 9995,
      "nɩ": 9996,
      "ປະ": 9997,
      "kila": 9998,
      "pir": 9999,
      "fika": 10000,
      "India": 10001,
      "piny": 10002,
      "آهي": 10003,
      "رض": 10004,
      "ണ്ട": 10005,
      "้า": 10006,
      "stra": 10007,
      "mento": 10008,
      "ություն": 10009,
      "uver": 10010,
      "мы": 10011,
      "دري": 10012,
      "عند": 10013,
      "kad": 10014,
      "ولو": 10015,
      "dent": 10016,
      "onia": 10017,
      "GPS": 10018,
      "zar": 10019,
      "ⵡⴰⵏ": 10020,
      "TV": 10021,
      "væ": 10022,
      "öz": 10023,
      "شی": 10024,
      "সে": 10025,
      "მე": 10026,
      "sama": 10027,
      "hay": 10028,
      "jat": 10029,
      "າດ": 10030,
      "inĩ": 10031,
      "mole": 10032,
      "vad": 10033,
      "लेल": 10034,
      "igi": 10035,
      "гән": 10036,
      "വി": 10037,
      "moko": 10038,
      "geu": 10039,
      "ন্ত": 10040,
      "سبب": 10041,
      "тэ": 10042,
      "ಗೆ": 10043,
      "ၼ်ႈ": 10044,
      "teri": 10045,
      "1970": 10046,
      "von": 10047,
      "ವಾ": 10048,
      "ert": 10049,
      "seu": 10050,
      "Tr": 10051,
      "his": 10052,
      "kli": 10053,
      "mach": 10054,
      "MetroPlus": 10055,
      "ct": 10056,
      "vali": 10057,
      "ەن": 10058,
      "kutu": 10059,
      "hir": 10060,
      "vai": 10061,
      "AC": 10062,
      "eku": 10063,
      "ία": 10064,
      "ᱠᱟ": 10065,
      "hia": 10066,
      "Bay": 10067,
      "nal": 10068,
      "tru": 10069,
      "қа": 10070,
      "كُ": 10071,
      "আৰু": 10072,
      "ਆਂ": 10073,
      "した": 10074,
      "mi̱": 10075,
      "pli": 10076,
      "ئی": 10077,
      "لات": 10078,
      "کم": 10079,
      "fici": 10080,
      "ത്ത": 10081,
      "fas": 10082,
      "mari": 10083,
      "ों": 10084,
      "వి": 10085,
      "ⴰⴾ": 10086,
      "inta": 10087,
      "mula": 10088,
      "vide": 10089,
      "ış": 10090,
      "ят": 10091,
      "צי": 10092,
      "دَ": 10093,
      "يى": 10094,
      "ٹھ": 10095,
      "tahi": 10096,
      "day": 10097,
      "sit": 10098,
      "bung": 10099,
      "flu": 10100,
      "tǝ": 10101,
      "था": 10102,
      "pai": 10103,
      "kit": 10104,
      "bona": 10105,
      "sya": 10106,
      "mae": 10107,
      "chay": 10108,
      "ți": 10109,
      "лен": 10110,
      "ած": 10111,
      "قط": 10112,
      "সম": 10113,
      "ោះ": 10114,
      "الث": 10115,
      "ၵ်ႈ": 10116,
      "чу": 10117,
      "ہو": 10118,
      "गि": 10119,
      "ਹਨ": 10120,
      "کرد": 10121,
      "την": 10122,
      "kilome": 10123,
      "cum": 10124,
      "sci": 10125,
      "ैत": 10126,
      "inda": 10127,
      "ella": 10128,
      "osa": 10129,
      "seng": 10130,
      "المن": 10131,
      "cat": 10132,
      "ms": 10133,
      "जान": 10134,
      "kup": 10135,
      "kela": 10136,
      "स्ट": 10137,
      "khulu": 10138,
      "Wor": 10139,
      "üç": 10140,
      "တူ": 10141,
      "kaa": 10142,
      "tere": 10143,
      "অমস": 10144,
      "yya": 10145,
      "غا": 10146,
      "ีย": 10147,
      "ას": 10148,
      "ins": 10149,
      "erman": 10150,
      "ادا": 10151,
      "يق": 10152,
      "တေ": 10153,
      "ster": 10154,
      "mere": 10155,
      "तक": 10156,
      "ྲི": 10157,
      "bit": 10158,
      "polo": 10159,
      "soo": 10160,
      "vati": 10161,
      "ən": 10162,
      "ел": 10163,
      "bula": 10164,
      "peri": 10165,
      "ак": 10166,
      "حة": 10167,
      "ండ": 10168,
      "ාව": 10169,
      "Wa": 10170,
      "mpe": 10171,
      "بۆ": 10172,
      "आणि": 10173,
      "කර": 10174,
      "ມີ": 10175,
      "tia": 10176,
      "lie": 10177,
      "př": 10178,
      "טי": 10179,
      "organi": 10180,
      "איז": 10181,
      "lya": 10182,
      "umi": 10183,
      "ού": 10184,
      "ју": 10185,
      "اض": 10186,
      "ಪ್ರ": 10187,
      "অমসুং": 10188,
      "ɣöö": 10189,
      "ⵢⴰ": 10190,
      "manu": 10191,
      "sẽn": 10192,
      "ᱠᱟᱱᱟ": 10193,
      "ları": 10194,
      "gel": 10195,
      "ден": 10196,
      "ମ୍": 10197,
      "ndị": 10198,
      "كانت": 10199,
      "awo": 10200,
      "цца": 10201,
      "نام": 10202,
      "ត្រ": 10203,
      "ម្": 10204,
      "ons": 10205,
      "المح": 10206,
      "auto": 10207,
      "သည့်": 10208,
      "কৰি": 10209,
      "lori": 10210,
      "που": 10211,
      "خاص": 10212,
      "”,": 10213,
      "bila": 10214,
      "amp": 10215,
      "meng": 10216,
      "اورڠ": 10217,
      "iba": 10218,
      "jes": 10219,
      "nı": 10220,
      "डा": 10221,
      "progra": 10222,
      "bhe": 10223,
      "ск": 10224,
      "ਹੋ": 10225,
      "ണ്": 10226,
      "ອນ": 10227,
      "tiko": 10228,
      "kop": 10229,
      "Atlanta": 10230,
      "World": 10231,
      "لْ": 10232,
      "दो": 10233,
      "చే": 10234,
      "ของ": 10235,
      "yna": 10236,
      "עס": 10237,
      "ًا": 10238,
      "kuwa": 10239,
      "dade": 10240,
      "siya": 10241,
      "ောက်": 10242,
      "ылы": 10243,
      "Tours": 10244,
      "bí": 10245,
      "sı": 10246,
      "тө": 10247,
      "پار": 10248,
      "त्य": 10249,
      "alt": 10250,
      "bro": 10251,
      "تَ": 10252,
      "కి": 10253,
      "dam": 10254,
      "base": 10255,
      "kos": 10256,
      "Ph": 10257,
      "bora": 10258,
      "hra": 10259,
      "że": 10260,
      "ເປ": 10261,
      "ེར": 10262,
      "လႄႈ": 10263,
      "atta": 10264,
      "chan": 10265,
      "chen": 10266,
      "sul": 10267,
      "ери": 10268,
      "тор": 10269,
      "Ver": 10270,
      "ín": 10271,
      "ɖó": 10272,
      "جی": 10273,
      "ர்க": 10274,
      "ವಿ": 10275,
      "daw": 10276,
      "wax": 10277,
      "្នុង": 10278,
      "Un": 10279,
      "ral": 10280,
      "ɓe": 10281,
      "اح": 10282,
      "နိုင်": 10283,
      "ული": 10284,
      "hom": 10285,
      "prin": 10286,
      "समय": 10287,
      "bari": 10288,
      "نه": 10289,
      "अस": 10290,
      "ว่า": 10291,
      "Mis": 10292,
      "ega": 10293,
      "ân": 10294,
      "èl": 10295,
      "ក្នុង": 10296,
      "unda": 10297,
      "Tutan": 10298,
      "และ": 10299,
      "ườ": 10300,
      "ked": 10301,
      "ний": 10302,
      "क्त": 10303,
      "ɛ̈": 10304,
      "दर्": 10305,
      "wata": 10306,
      "অদু": 10307,
      "ᱦᱚ": 10308,
      "mano": 10309,
      "hei": 10310,
      "inaka": 10311,
      "wie": 10312,
      "matu": 10313,
      "Ge": 10314,
      "Sik": 10315,
      "ɛɛ": 10316,
      "המ": 10317,
      "عم": 10318,
      "قبل": 10319,
      "आहे": 10320,
      "الات": 10321,
      "പ്ര": 10322,
      "Pol": 10323,
      "dere": 10324,
      "بط": 10325,
      "ەوە": 10326,
      "सो": 10327,
      "ได้": 10328,
      "ည်": 10329,
      "lim": 10330,
      "loko": 10331,
      "niy": 10332,
      "golo": 10333,
      "gian": 10334,
      "tsh": 10335,
      "Reid": 10336,
      "lər": 10337,
      "ုံး": 10338,
      "leri": 10339,
      "үр": 10340,
      "ེལ": 10341,
      "kula": 10342,
      "ruk": 10343,
      "fana": 10344,
      "ত্র": 10345,
      "થી": 10346,
      "್ದ": 10347,
      "ალ": 10348,
      "lege": 10349,
      "save": 10350,
      "ches": 10351,
      "انية": 10352,
      "cs": 10353,
      "fre": 10354,
      "ihe": 10355,
      "ෙන්": 10356,
      "မၼ်း": 10357,
      "alan": 10358,
      "medi": 10359,
      "ük": 10360,
      "мал": 10361,
      "אפ": 10362,
      "श्य": 10363,
      "கு": 10364,
      "bab": 10365,
      "use": 10366,
      "ءق": 10367,
      "لن": 10368,
      "ეს": 10369,
      "dek": 10370,
      "dagiti": 10371,
      "him": 10372,
      "como": 10373,
      "vua": 10374,
      "чен": 10375,
      "àwọn": 10376,
      "बहु": 10377,
      "ულ": 10378,
      "្យ": 10379,
      "hotel": 10380,
      "olsem": 10381,
      "dengan": 10382,
      "ami": 10383,
      "gis": 10384,
      "gana": 10385,
      "had": 10386,
      "fyri": 10387,
      "སྦེ": 10388,
      "Je": 10389,
      "ís": 10390,
      "ór": 10391,
      "دِ": 10392,
      "ीय": 10393,
      "বং": 10394,
      "ನಿ": 10395,
      "hanga": 10396,
      "اسو": 10397,
      "баш": 10398,
      "เป็น": 10399,
      "ál": 10400,
      "इल": 10401,
      "फो": 10402,
      "চা": 10403,
      "ရာ": 10404,
      "ზე": 10405,
      "្ស": 10406,
      "dispela": 10407,
      "mw": 10408,
      "àr": 10409,
      "stitu": 10410,
      "Pri": 10411,
      "ав": 10412,
      "лю": 10413,
      "ിൽ": 10414,
      "mad": 10415,
      "kut": 10416,
      "nih": 10417,
      "ques": 10418,
      "နှင့်": 10419,
      "Jam": 10420,
      "võ": 10421,
      "тра": 10422,
      "उन": 10423,
      "पो": 10424,
      "taj": 10425,
      "xu": 10426,
      "ис": 10427,
      "نت": 10428,
      "मध्य": 10429,
      "న్న": 10430,
      "Van": 10431,
      "zá": 10432,
      "ంట": 10433,
      "អា": 10434,
      "rawa": 10435,
      "ned": 10436,
      "atawa": 10437,
      "ôrô": 10438,
      "khi": 10439,
      "wani": 10440,
      "تہ": 10441,
      "ള്": 10442,
      "ont": 10443,
      "قد": 10444,
      "كة": 10445,
      "لغ": 10446,
      "onu": 10447,
      "jem": 10448,
      "kanga": 10449,
      "Ing": 10450,
      "Min": 10451,
      "jú": 10452,
      "ōw": 10453,
      "ां": 10454,
      "རང": 10455,
      "ⵎⴰ": 10456,
      "pad": 10457,
      "ندا": 10458,
      "Ter": 10459,
      "Vi": 10460,
      "ffi": 10461,
      "ৰি": 10462,
      "ᱞᱟᱹ": 10463,
      "ます": 10464,
      "ley": 10465,
      "eth": 10466,
      "uran": 10467,
      "ادة": 10468,
      "Indi": 10469,
      "Er": 10470,
      "हई": 10471,
      "ರೆ": 10472,
      "pil": 10473,
      "manta": 10474,
      "tani": 10475,
      "جان": 10476,
      "अं": 10477,
      "ᱤᱭ": 10478,
      "ᱼᱟ": 10479,
      "col": 10480,
      "င်ႈ": 10481,
      "obi": 10482,
      "pali": 10483,
      "זי": 10484,
      "تخ": 10485,
      "tapi": 10486,
      "sir": 10487,
      "kete": 10488,
      "ောင်း": 10489,
      "योग": 10490,
      "Mara": 10491,
      "hor": 10492,
      "kari": 10493,
      "ες": 10494,
      "လု": 10495,
      "onde": 10496,
      "tua": 10497,
      "ارات": 10498,
      "र्थ": 10499,
      "लिए": 10500,
      "NE": 10501,
      "sc": 10502,
      "ulu": 10503,
      "اب": 10504,
      "त्या": 10505,
      "୍ଟ": 10506,
      "ிக": 10507,
      "ಕಾ": 10508,
      "ၵ်း": 10509,
      "eren": 10510,
      "ၵ်ႇ": 10511,
      "klu": 10512,
      "nti": 10513,
      "سط": 10514,
      "شو": 10515,
      "पहि": 10516,
      "ುತ್ತ": 10517,
      "හි": 10518,
      "ᱵᱟ": 10519,
      "Oli": 10520,
      "cane": 10521,
      "China": 10522,
      "རྒྱུ": 10523,
      "VI": 10524,
      "ượ": 10525,
      "دور": 10526,
      "ལོ": 10527,
      "ពី": 10528,
      "chin": 10529,
      "pot": 10530,
      "menti": 10531,
      "ولا": 10532,
      "llen": 10533,
      "fl": 10534,
      "ike": 10535,
      "ۆر": 10536,
      "ടെ": 10537,
      "ວ່າ": 10538,
      "solo": 10539,
      "dən": 10540,
      "..": 10541,
      "cti": 10542,
      "pé": 10543,
      "që": 10544,
      "ху": 10545,
      "อย": 10546,
      "እና": 10547,
      "ᱮᱫ": 10548,
      "miri": 10549,
      "तिर": 10550,
      "ның": 10551,
      "ပါသည်": 10552,
      "ɖɛ": 10553,
      "νο": 10554,
      "بۇ": 10555,
      "ضر": 10556,
      "ၶဝ်": 10557,
      "daa": 10558,
      "thĩ": 10559,
      "akka": 10560,
      "hina": 10561,
      "yên": 10562,
      "کړ": 10563,
      "લા": 10564,
      "าน": 10565,
      "ვე": 10566,
      "onge": 10567,
      "pasa": 10568,
      "bez": 10569,
      "сте": 10570,
      "ممكن": 10571,
      "Dom": 10572,
      "oje": 10573,
      "sl": 10574,
      "এবং": 10575,
      "নী": 10576,
      "taka": 10577,
      "mela": 10578,
      "anak": 10579,
      "nem": 10580,
      "ambo": 10581,
      "сь": 10582,
      "رْ": 10583,
      "یان": 10584,
      "ूल": 10585,
      "ಮತ್ತು": 10586,
      "ັງ": 10587,
      "າກ": 10588,
      "ဢမ်ႇ": 10589,
      "aras": 10590,
      "hab": 10591,
      "hem": 10592,
      "sareng": 10593,
      "Oly": 10594,
      "otu": 10595,
      "حر": 10596,
      "ێت": 10597,
      "बना": 10598,
      "kile": 10599,
      "बाद": 10600,
      "dhu": 10601,
      "ją": 10602,
      "nú": 10603,
      "zwa": 10604,
      "कई": 10605,
      "ကျ": 10606,
      "တႃႇ": 10607,
      "els": 10608,
      "pita": 10609,
      "وني": 10610,
      "ريق": 10611,
      "مختلف": 10612,
      "dü": 10613,
      "lati": 10614,
      "zam": 10615,
      "що": 10616,
      "كم": 10617,
      "মে": 10618,
      "ົນ": 10619,
      "ིང": 10620,
      "jah": 10621,
      "prote": 10622,
      "nó": 10623,
      "pur": 10624,
      "από": 10625,
      "ես": 10626,
      "भि": 10627,
      "রে": 10628,
      "taim": 10629,
      "tot": 10630,
      "noma": 10631,
      "tene": 10632,
      "جار": 10633,
      "वै": 10634,
      "නි": 10635,
      "ួយ": 10636,
      "too": 10637,
      "impor": 10638,
      "Det": 10639,
      "Tai": 10640,
      "aha": 10641,
      "wä": 10642,
      "ōn": 10643,
      "تكون": 10644,
      "জি": 10645,
      "കാ": 10646,
      "ონ": 10647,
      "ⵙⵙ": 10648,
      "isu": 10649,
      "zione": 10650,
      "της": 10651,
      "ള്ള": 10652,
      "bale": 10653,
      "ök": 10654,
      "خر": 10655,
      "मो": 10656,
      "ਰਾ": 10657,
      "པོ": 10658,
      "བཟ": 10659,
      "န်း": 10660,
      "الغ": 10661,
      "meu": 10662,
      "negara": 10663,
      "phi": 10664,
      "کل": 10665,
      "টো": 10666,
      "ᱚᱢ": 10667,
      "nach": 10668,
      "urang": 10669,
      "teng": 10670,
      "oriori": 10671,
      "ava": 10672,
      "củ": 10673,
      "dô": 10674,
      "sko": 10675,
      "udi": 10676,
      "vent": 10677,
      "ym": 10678,
      "ëë": 10679,
      "हवय": 10680,
      "తు": 10681,
      "ᱵᱷ": 10682,
      "زَ": 10683,
      "کس": 10684,
      "जब": 10685,
      "ण्या": 10686,
      "তো": 10687,
      "વિ": 10688,
      "තු": 10689,
      "lum": 10690,
      "gir": 10691,
      "Green": 10692,
      "ారు": 10693,
      "của": 10694,
      "Ya": 10695,
      "дер": 10696,
      "یہ": 10697,
      "सर्": 10698,
      "maga": 10699,
      "ज्ञ": 10700,
      "gore": 10701,
      "hore": 10702,
      "ær": 10703,
      "अलग": 10704,
      "mua": 10705,
      "vanda": 10706,
      "eki": 10707,
      "зі": 10708,
      "рә": 10709,
      "এক": 10710,
      "નો": 10711,
      "પ્ર": 10712,
      "uno": 10713,
      "ייט": 10714,
      "ಾಗಿ": 10715,
      "ເປັນ": 10716,
      "ður": 10717,
      "πε": 10718,
      "спо": 10719,
      "فو": 10720,
      "आव": 10721,
      "ຈະ": 10722,
      "འགྲ": 10723,
      "ᱤᱥ": 10724,
      "tee": 10725,
      "tolo": 10726,
      "kani": 10727,
      "вар": 10728,
      "​​": 10729,
      "dom": 10730,
      "prze": 10731,
      "برای": 10732,
      "ယူႇ": 10733,
      "Rus": 10734,
      "tso": 10735,
      "им": 10736,
      "تس": 10737,
      "રા": 10738,
      "difer": 10739,
      "निर्": 10740,
      "нар": 10741,
      "مسا": 10742,
      "ంది": 10743,
      "ande": 10744,
      "dira": 10745,
      "mur": 10746,
      "gio": 10747,
      "denti": 10748,
      "wane": 10749,
      "اده": 10750,
      "kɔn": 10751,
      "שי": 10752,
      "عمل": 10753,
      "هە": 10754,
      "यि": 10755,
      "ଲା": 10756,
      "enn": 10757,
      "tema": 10758,
      "jih": 10759,
      "\"\"\"": 10760,
      "kple": 10761,
      "ച്ച": 10762,
      "peteĩ": 10763,
      "Car": 10764,
      "iş": 10765,
      "ksi": 10766,
      "цы": 10767,
      "بية": 10768,
      "مۇ": 10769,
      "ាយ": 10770,
      "परि": 10771,
      "Les": 10772,
      "dara": 10773,
      "oka": 10774,
      "πα": 10775,
      "تور": 10776,
      "سال": 10777,
      "দ্": 10778,
      "ⴰⴼ": 10779,
      "alar": 10780,
      "ret": 10781,
      "popu": 10782,
      "eks": 10783,
      "करा": 10784,
      "হায়": 10785,
      "bè": 10786,
      "дру": 10787,
      "את": 10788,
      "دام": 10789,
      "نظ": 10790,
      "ორ": 10791,
      "ურ": 10792,
      "ales": 10793,
      "stand": 10794,
      "ள்ள": 10795,
      "Ol": 10796,
      "bato": 10797,
      "jā": 10798,
      "phu": 10799,
      "tú": 10800,
      "vam": 10801,
      "ом": 10802,
      "قر": 10803,
      "लै": 10804,
      "ột": 10805,
      "mber": 10806,
      "тур": 10807,
      "fya": 10808,
      "uga": 10809,
      "বু": 10810,
      "ᱟᱸ": 10811,
      "نده": 10812,
      "qil": 10813,
      "μέ": 10814,
      "ալ": 10815,
      "ۋە": 10816,
      "యి": 10817,
      "unna": 10818,
      "turi": 10819,
      "kili": 10820,
      "edd": 10821,
      "obje": 10822,
      "32": 10823,
      "dè": 10824,
      "кра": 10825,
      "ից": 10826,
      "ၼႆႉ": 10827,
      "ក្រ": 10828,
      "mada": 10829,
      "اما": 10830,
      "Nam": 10831,
      "سات": 10832,
      "জা": 10833,
      "যে": 10834,
      "மு": 10835,
      "යි": 10836,
      "ⵓⴱ": 10837,
      "seo": 10838,
      "thei": 10839,
      "မိူင်း": 10840,
      "3ala": 10841,
      "Ri": 10842,
      "cus": 10843,
      "ea": 10844,
      "гол": 10845,
      "masu": 10846,
      "kë": 10847,
      "ktor": 10848,
      "шо": 10849,
      "وب": 10850,
      "वं": 10851,
      "নু": 10852,
      "ମାନ": 10853,
      "ིས": 10854,
      "ဝႃႈ": 10855,
      "dest": 10856,
      "zil": 10857,
      "ostel": 10858,
      "Fal": 10859,
      "One": 10860,
      "lara": 10861,
      "ugo": 10862,
      "zat": 10863,
      "ян": 10864,
      "هان": 10865,
      "്ല": 10866,
      "maq": 10867,
      "lugar": 10868,
      "най": 10869,
      "dera": 10870,
      "tres": 10871,
      "कुछ": 10872,
      "czy": 10873,
      "dist": 10874,
      "ল্": 10875,
      "്ര": 10876,
      "lay": 10877,
      "kuta": 10878,
      "ται": 10879,
      "ең": 10880,
      "пі": 10881,
      "اپ": 10882,
      "ில": 10883,
      "యు": 10884,
      "ዎች": 10885,
      "estas": 10886,
      "duc": 10887,
      "guru": 10888,
      "खातिर": 10889,
      "pɔ": 10890,
      "xwe": 10891,
      "تٗ": 10892,
      "كٗ": 10893,
      "िका": 10894,
      "ውን": 10895,
      "ភា": 10896,
      "tio": 10897,
      "bih": 10898,
      "bul": 10899,
      "тив": 10900,
      "yane": 10901,
      "كبير": 10902,
      "یە": 10903,
      "kawa": 10904,
      "lok": 10905,
      "nek": 10906,
      "fam": 10907,
      "så": 10908,
      "uw": 10909,
      "ða": 10910,
      "εν": 10911,
      "িত": 10912,
      "ាប់": 10913,
      "atom": 10914,
      "kaba": 10915,
      "embo": 10916,
      "organis": 10917,
      "Est": 10918,
      "Ru": 10919,
      "line": 10920,
      "zna": 10921,
      "zzi": 10922,
      "འཛ": 10923,
      "kura": 10924,
      "ادو": 10925,
      "kɛn": 10926,
      "62": 10927,
      "Whi": 10928,
      "eme": 10929,
      "རྩ": 10930,
      "ပေ": 10931,
      "inc": 10932,
      "ونو": 10933,
      "ान्": 10934,
      "bw": 10935,
      "gw": 10936,
      "joni": 10937,
      "oto": 10938,
      "ér": 10939,
      "فة": 10940,
      "lab": 10941,
      "laka": 10942,
      "mea": 10943,
      "tanga": 10944,
      "ိူဝ်း": 10945,
      "និង": 10946,
      "PC": 10947,
      "agi": 10948,
      "fri": 10949,
      "jang": 10950,
      "zə": 10951,
      "zis": 10952,
      "لان": 10953,
      "ၼမ်": 10954,
      "ond": 10955,
      "kees": 10956,
      "ayi": 10957,
      "ose": 10958,
      "visa": 10959,
      "zas": 10960,
      "यर": 10961,
      "chun": 10962,
      "fic": 10963,
      "Ju": 10964,
      "Ven": 10965,
      "ave": 10966,
      "oma": 10967,
      "ól": 10968,
      "ɩyɛ": 10969,
      "իր": 10970,
      "ల్": 10971,
      "ัง": 10972,
      "anyi": 10973,
      "basa": 10974,
      "enton": 10975,
      "Santa": 10976,
      "28": 10977,
      "Den": 10978,
      "jí": 10979,
      "shu": 10980,
      "zǝ": 10981,
      "فی": 10982,
      "দো": 10983,
      "ཁྱ": 10984,
      "སྒ": 10985,
      "dae": 10986,
      "ings": 10987,
      "that": 10988,
      "өг": 10989,
      "עט": 10990,
      "فا": 10991,
      "ન્": 10992,
      "રી": 10993,
      "સા": 10994,
      "enta": 10995,
      "onso": 10996,
      "duran": 10997,
      "даг": 10998,
      "open": 10999,
      "sə": 11000,
      "נו": 11001,
      "ذي": 11002,
      "ላይ": 11003,
      "ray": 11004,
      "bek": 11005,
      "लाई": 11006,
      "2004": 11007,
      "apa": 11008,
      "bá": 11009,
      "kere": 11010,
      "zel": 11011,
      "ści": 11012,
      "̱a̱": 11013,
      "فل": 11014,
      "कर्": 11015,
      "செ": 11016,
      "ამ": 11017,
      "ვი": 11018,
      "zem": 11019,
      "Canada": 11020,
      "tale": 11021,
      "zza": 11022,
      "ър": 11023,
      "רא": 11024,
      "خدم": 11025,
      "পু": 11026,
      "শা": 11027,
      "ander": 11028,
      "taki": 11029,
      "arak": 11030,
      "gira": 11031,
      "ved": 11032,
      "Zealand": 11033,
      "36": 11034,
      "Do": 11035,
      "ebe": 11036,
      "στ": 11037,
      "று": 11038,
      "གཞ": 11039,
      "turis": 11040,
      "1995": 11041,
      "1998": 11042,
      "Afrika": 11043,
      "468": 11044,
      "49": 11045,
      "izi": 11046,
      "rụ": 11047,
      "ให": 11048,
      "າງ": 11049,
      "ື່": 11050,
      "أنه": 11051,
      "220": 11052,
      "Sky": 11053,
      "obu": 11054,
      "جد": 11055,
      "ੱਕ": 11056,
      "ଏବ": 11057,
      "କି": 11058,
      "baw": 11059,
      "ril": 11060,
      "lula": 11061,
      "vers": 11062,
      "साथ": 11063,
      "може": 11064,
      "स्था": 11065,
      "64": 11066,
      "ман": 11067,
      "نز": 11068,
      "ਤੋਂ": 11069,
      "mot": 11070,
      "luka": 11071,
      "2016": 11072,
      "ward": 11073,
      "finan": 11074,
      "க்கு": 11075,
      "अउर": 11076,
      "kanggo": 11077,
      "Fe": 11078,
      "gë": 11079,
      "nk": 11080,
      "ppa": 11081,
      "qar": 11082,
      "их": 11083,
      "בא": 11084,
      "جات": 11085,
      "سْ": 11086,
      "غل": 11087,
      "ନି": 11088,
      "ິດ": 11089,
      "Proven": 11090,
      ",\"": 11091,
      "Feli": 11092,
      "Or": 11093,
      "Tra": 11094,
      "фо": 11095,
      "কী": 11096,
      "មួយ": 11097,
      "naa": 11098,
      "anaa": 11099,
      "1922": 11100,
      "गेल": 11101,
      "Olimpi": 11102,
      "pɛ": 11103,
      "ss": 11104,
      "کت": 11105,
      "ັກ": 11106,
      "lian": 11107,
      "hol": 11108,
      "Spa": 11109,
      "bla": 11110,
      "iga": 11111,
      "tă": 11112,
      "zano": 11113,
      "ĩrĩ": 11114,
      "йг": 11115,
      "ಂತ": 11116,
      "ಕೆ": 11117,
      "ದು": 11118,
      "වා": 11119,
      "ⴰⴱ": 11120,
      "till": 11121,
      "esper": 11122,
      "omer": 11123,
      "55": 11124,
      "83": 11125,
      "чно": 11126,
      "سه": 11127,
      "چی": 11128,
      "ਤੀ": 11129,
      "තර": 11130,
      "kamp": 11131,
      "wag": 11132,
      "mum": 11133,
      "امو": 11134,
      "тел": 11135,
      "2007": 11136,
      "Mae": 11137,
      "अधिक": 11138,
      "kpa": 11139,
      "ాని": 11140,
      "ප්‍ර": 11141,
      "ansa": 11142,
      "taw": 11143,
      "انو": 11144,
      "Francisco": 11145,
      "bhi": 11146,
      "cï": 11147,
      "jë": 11148,
      "jó": 11149,
      "sú": 11150,
      "уу": 11151,
      "قو": 11152,
      "مات": 11153,
      "وَ": 11154,
      "چە": 11155,
      "ਸੀ": 11156,
      "ସେ": 11157,
      "mau": 11158,
      "wah": 11159,
      "mand": 11160,
      "алі": 11161,
      "tsha": 11162,
      "eria": 11163,
      "वाला": 11164,
      "ဝ်ႇ": 11165,
      "54": 11166,
      "KV": 11167,
      "Moriori": 11168,
      "fè": 11169,
      "jel": 11170,
      "ıl": 11171,
      "ประ": 11172,
      "ⴰⴶ": 11173,
      "masi": 11174,
      "स्ति": 11175,
      "gyal": 11176,
      "ಗಳು": 11177,
      "Mon": 11178,
      "kisi": 11179,
      "शे": 11180,
      "ᱢᱤᱫ": 11181,
      "てい": 11182,
      "ambu": 11183,
      "بشكل": 11184,
      "ଏବଂ": 11185,
      "яр": 11186,
      "بَ": 11187,
      "پێ": 11188,
      "सू": 11189,
      "மற்ற": 11190,
      "እዩ": 11191,
      "mais": 11192,
      "mid": 11193,
      "viet": 11194,
      "করে": 11195,
      "A1": 11196,
      "hara": 11197,
      "kó": 11198,
      "vē": 11199,
      "דע": 11200,
      "حال": 11201,
      "टो": 11202,
      "ठी": 11203,
      "हन": 11204,
      "kutsi": 11205,
      "mien": 11206,
      "gut": 11207,
      "kanda": 11208,
      "voor": 11209,
      "निक": 11210,
      "ন্য": 11211,
      "Bre": 11212,
      "bisi": 11213,
      "pä": 11214,
      "тк": 11215,
      "ترا": 11216,
      "කා": 11217,
      "མཐ": 11218,
      "ᱜᱮ": 11219,
      "nim": 11220,
      "yeke": 11221,
      "لىق": 11222,
      "wuma": 11223,
      "ahụ": 11224,
      "جود": 11225,
      "Buff": 11226,
      "Olympi": 11227,
      "ostello": 11228,
      "Bi": 11229,
      "Ir": 11230,
      "ple": 11231,
      "ɖi": 11232,
      "ब्र": 11233,
      "ટે": 11234,
      "siwo": 11235,
[...]
